<pad>	0
<unk>	0
<s>	0
</s>	0
▁a	-0
in	-1
▁t	-2
re	-3
on	-4
ti	-5
he	-6
en	-7
▁c	-8
▁s	-9
▁o	-10
▁p	-11
er	-12
al	-13
▁the	-14
ed	-15
▁in	-16
▁an	-17
at	-18
▁w	-19
es	-20
or	-21
▁m	-22
▁of	-23
ro	-24
an	-25
is	-26
▁d	-27
it	-28
tion	-29
▁and	-30
▁f	-31
ic	-32
as	-33
▁b	-34
ar	-35
ing	-36
▁re	-37
ent	-38
▁e	-39
le	-40
ation	-41
ve	-42
▁to	-43
ec	-44
▁(	-45
om	-46
▁h	-47
us	-48
ul	-49
▁n	-50
ac	-51
ly	-52
et	-53
os	-54
▁th	-55
id	-56
ur	-57
▁l	-58
ol	-59
▁g	-60
im	-61
▁we	-62
un	-63
ith	-64
▁with	-65
▁st	-66
ati	-67
ig	-68
ce	-69
▁con	-70
ter	-71
▁pro	-72
el	-73
▁for	-74
res	-75
ra	-76
il	-77
ts	-78
▁as	-79
od	-80
▁v	-81
if	-82
ot	-83
ut	-84
ated	-85
uc	-86
oc	-87
ion	-88
tic	-89
op	-90
ow	-91
ity	-92
▁res	-93
ment	-94
▁ex	-95
▁was	-96
um	-97
▁r	-98
▁were	-99
ir	-100
ud	-101
st	-102
▁is	-103
ate	-104
▁com	-105
am	-106
og	-107
ab	-108
▁on	-109
▁ac	-110
em	-111
ag	-112
ver	-113
▁1	-114
ents	-115
ri	-116
ical	-117
▁that	-118
ant	-119
up	-120
th	-121
red	-122
qu	-123
▁al	-124
▁ch	-125
▁im	-126
▁be	-127
tive	-128
▁pati	-129
ren	-130
rom	-131
▁by	-132
▁comp	-133
▁de	-134
ff	-135
▁2	-136
ess	-137
ine	-138
ys	-139
ted	-140
▁he	-141
▁dis	-142
und	-143
ell	-144
di	-145
▁us	-146
▁stud	-147
ase	-148
se	-149
ress	-150
0.	-151
▁patients	-152
her	-153
cl	-154
▁ad	-155
ad	-156
▁or	-157
te	-158
pec	-159
ph	-160
pl	-161
ain	-162
ign	-163
▁at	-164
▁ass	-165
vel	-166
duc	-167
▁this	-168
▁met	-169
▁ne	-170
▁cell	-171
ers	-172
iz	-173
ure	-174
▁se	-175
ib	-176
tr	-177
▁en	-178
ug	-179
ific	-180
igh	-181
ies	-182
▁from	-183
).	-184
ations	-185
▁are	-186
por	-187
▁wh	-188
tiv	-189
ay	-190
▁le	-191
ore	-192
ub	-193
ran	-194
▁exp	-195
▁gen	-196
iv	-197
ence	-198
yp	-199
ip	-200
▁eff	-201
▁can	-202
ch	-203
▁per	-204
orm	-205
▁sh	-206
▁resul	-207
tor	-208
▁cl	-209
ous	-210
ia	-211
ge	-212
▁study	-213
▁sign	-214
),	-215
ial	-216
▁inf	-217
▁pre	-218
▁sy	-219
est	-220
olog	-221
enti	-222
ap	-223
▁di	-224
ary	-225
▁k	-226
tro	-227
ased	-228
▁inc	-229
▁gro	-230
ative	-231
ular	-232
fe	-233
reat	-234
▁co	-235
▁0.	-236
ens	-237
▁ev	-238
▁ap	-239
▁inter	-240
lec	-241
pro	-242
▁results	-243
ance	-244
▁dif	-245
ost	-246
oci	-247
▁3	-248
feren	-249
▁anal	-250
▁effec	-251
▁ob	-252
ression	-253
ear	-254
▁meth	-255
▁ph	-256
▁par	-257
and	-258
age	-259
▁mod	-260
▁bet	-261
00	-262
▁reg	-263
▁rec	-264
we	-265
▁pl	-266
vi	-267
tions	-268
▁sur	-269
ath	-270
ong	-271
▁signific	-272
▁sc	-273
rans	-274
ist	-275
▁ha	-276
▁it	-277
ide	-278
ast	-279
▁trans	-280
unc	-281
ther	-282
▁method	-283
de	-284
ose	-285
▁differen	-286
▁significant	-287
▁group	-288
▁incre	-289
rap	-290
ll	-291
▁treat	-292
▁ca	-293
▁associ	-294
▁not	-295
ween	-296
▁ab	-297
▁am	-298
ari	-299
▁between	-300
usion	-301
▁y	-302
▁me	-303
ding	-304
ich	-305
▁=	-306
▁cells	-307
▁sub	-308
all	-309
yl	-310
▁these	-311
port	-312
cer	-313
▁int	-314
▁inv	-315
ally	-316
able	-317
-1	-318
▁treatment	-319
▁af	-320
alu	-321
ved	-322
▁det	-323
▁spec	-324
enc	-325
▁bi	-326
▁activ	-327
▁fac	-328
▁und	-329
▁ro	-330
ome	-331
▁analys	-332
▁using	-333
iti	-334
ates	-335
end	-336
ied	-337
01	-338
tein	-339
▁show	-340
▁no	-341
▁have	-342
▁fo	-343
tal	-344
▁un	-345
low	-346
ator	-347
form	-348
ive	-349
▁high	-350
▁mic	-351
ms	-352
▁pres	-353
▁clin	-354
▁under	-355
▁dise	-356
ech	-357
na	-358
ility	-359
▁4	-360
▁car	-361
pon	-362
▁rel	-363
tim	-364
▁after	-365
▁which	-366
jec	-367
ulation	-368
▁qu	-369
▁level	-370
▁cor	-371
▁med	-372
one	-373
osis	-374
▁str	-375
clusion	-376
▁ar	-377
velop	-378
ass	-379
▁whe	-380
ke	-381
▁dat	-382
▁5	-383
ting	-384
▁ag	-385
clud	-386
▁cons	-387
ases	-388
▁heal	-389
duced	-390
tional	-391
erm	-392
ill	-393
▁develop	-394
ox	-395
▁protein	-396
str	-397
▁pr	-398
ight	-399
▁po	-400
ros	-401
▁anti	-402
mun	-403
▁id	-404
▁health	-405
▁clinical	-406
ugh	-407
acter	-408
ew	-409
ple	-410
ual	-411
▁out	-412
▁methods	-413
isk	-414
▁contro	-415
ating	-416
anc	-417
▁conclusion	-418
▁cancer	-419
▁expression	-420
▁des	-421
hib	-422
ven	-423
▁all	-424
▁sp	-425
ared	-426
▁associated	-427
▁cont	-428
▁low	-429
▁dur	-430
entif	-431
▁dec	-432
▁func	-433
ue	-434
stem	-435
ack	-436
▁includ	-437
▁analysis	-438
act	-439
ized	-440
▁model	-441
▁their	-442
ological	-443
rib	-444
cess	-445
oth	-446
▁has	-447
ach	-448
pt	-449
▁more	-450
▁factor	-451
atic	-452
▁9	-453
5%	-454
▁how	-455
▁data	-456
▁disease	-457
▁tw	-458
▁col	-459
agn	-460
▁mo	-461
ogen	-462
▁risk	-463
▁man	-464
so	-465
▁identif	-466
ater	-467
▁vari	-468
ree	-469
▁than	-470
per	-471
▁used	-472
rain	-473
▁system	-474
out	-475
iss	-476
▁6	-477
▁bl	-478
▁may	-479
▁respon	-480
▁path	-481
pective	-482
▁pos	-483
ges	-484
▁sup	-485
▁been	-486
▁over	-487
der	-488
▁but	-489
yt	-490
lu	-491
ric	-492
▁therap	-493
▁non	-494
▁em	-495
rel	-496
ures	-497
▁ser	-498
ection	-499
hem	-500
▁gene	-501
ob	-502
▁fol	-503
▁evalu	-504
ds	-505
▁also	-506
▁mon	-507
vid	-508
ants	-509
ct	-510
▁there	-511
▁compared	-512
▁during	-513
uld	-514
▁tim	-515
▁assess	-516
ood	-517
ild	-518
gen	-519
hes	-520
▁studies	-521
arg	-522
▁year	-523
▁ra	-524
▁both	-525
▁use	-526
als	-527
ep	-528
▁pot	-529
hibit	-530
▁two	-531
▁significantly	-532
▁mul	-533
itive	-534
▁chan	-535
▁meas	-536
▁ind	-537
▁control	-538
▁hyp	-539
atory	-540
▁suc	-541
▁our	-542
inal	-543
▁perform	-544
ors	-545
▁increased	-546
ined	-547
▁had	-548
ace	-549
ization	-550
ays	-551
▁prog	-552
ak	-553
▁hig	-554
idence	-555
ans	-556
▁partic	-557
▁levels	-558
ile	-559
mon	-560
▁gl	-561
ser	-562
ever	-563
inding	-564
ential	-565
cep	-566
cent	-567
ult	-568
▁end	-569
▁follow	-570
▁acc	-571
▁hum	-572
pit	-573
tig	-574
▁present	-575
our	-576
ype	-577
view	-578
ici	-579
▁syn	-580
▁effects	-581
▁op	-582
▁impro	-583
▁sam	-584
▁comple	-585
▁dem	-586
▁j	-587
▁diagn	-588
▁sug	-589
duction	-590
▁tum	-591
ition	-592
ology	-593
▁however	-594
▁pred	-595
ication	-596
▁its	-597
▁dr	-598
-2	-599
ork	-600
▁immun	-601
tain	-602
▁activity	-603
ail	-604
▁7	-605
ability	-606
▁outc	-607
uct	-608
echan	-609
▁i	-610
▁sim	-611
ogra	-612
gro	-613
▁1.	-614
iver	-615
estig	-616
▁char	-617
▁investig	-618
cc	-619
▁showed	-620
ps	-621
▁appro	-622
urren	-623
oid	-624
▁201	-625
▁time	-626
▁other	-627
les	-628
▁mechan	-629
▁years	-630
pend	-631
med	-632
▁higher	-633
▁different	-634
▁exper	-635
ne	-636
▁imp	-637
▁up	-638
▁most	-639
▁es	-640
amm	-641
▁new	-642
▁obser	-643
oma	-644
ments	-645
▁who	-646
▁care	-647
▁found	-648
▁age	-649
ities	-650
▁rem	-651
ond	-652
▁(1	-653
own	-654
ination	-655
▁ma	-656
▁mor	-657
▁human	-658
▁8	-659
ines	-660
▁cr	-661
hed	-662
uro	-663
▁character	-664
tern	-665
ark	-666
ency	-667
▁import	-668
val	-669
onstr	-670
▁effect	-671
ism	-672
ten	-673
ard	-674
▁determ	-675
▁among	-676
erg	-677
ron	-678
▁one	-679
omes	-680
▁inhibit	-681
▁child	-682
emb	-683
▁post	-684
ational	-685
▁<	-686
▁development	-687
ect	-688
ution	-689
▁review	-690
ute	-691
▁ins	-692
tical	-693
arget	-694
oph	-695
ces	-696
▁surg	-697
ograph	-698
ery	-699
lym	-700
▁fur	-701
rough	-702
▁def	-703
▁tr	-704
▁back	-705
ium	-706
ions	-707
hen	-708
▁predic	-709
action	-710
▁well	-711
ale	-712
▁patient	-713
▁further	-714
▁multi	-715
▁into	-716
▁factors	-717
pectively	-718
lic	-719
▁exam	-720
▁role	-721
ung	-722
▁indic	-723
ural	-724
▁conclusions	-725
ected	-726
▁sm	-727
ound	-728
ort	-729
▁pop	-730
▁kn	-731
▁potential	-732
▁aim	-733
▁drug	-734
%)	-735
ym	-736
ite	-737
▁conf	-738
▁target	-739
▁rep	-740
▁disc	-741
yd	-742
▁decre	-743
▁form	-744
asc	-745
▁fe	-746
ground	-747
▁gener	-748
▁groups	-749
iqu	-750
pendent	-751
dition	-752
umb	-753
▁micro	-754
▁objec	-755
▁function	-756
ature	-757
▁tri	-758
▁such	-759
▁background	-760
▁through	-761
ov	-762
▁fir	-763
▁demonstr	-764
ha	-765
▁struct	-766
pos	-767
▁sec	-768
omen	-769
▁process	-770
ian	-771
tit	-772
tics	-773
▁tiss	-774
▁prim	-775
ok	-776
fer	-777
yn	-778
related	-779
art	-780
av	-781
▁caus	-782
cop	-783
▁test	-784
▁indi	-785
ulated	-786
▁first	-787
ality	-788
ible	-789
lamm	-790
▁mut	-791
▁molec	-792
▁prom	-793
▁dist	-794
are	-795
▁therapy	-796
▁respectively	-797
▁when	-798
▁long	-799
▁total	-800
▁acid	-801
reg	-802
ons	-803
ry	-804
ported	-805
▁phys	-806
▁cardi	-807
▁including	-808
urrent	-809
▁response	-810
▁inde	-811
▁important	-812
of	-813
ord	-814
ix	-815
▁ox	-816
▁three	-817
ram	-818
▁particip	-819
▁aff	-820
▁±	-821
arly	-822
▁finding	-823
ma	-824
▁ci	-825
▁identified	-826
▁grow	-827
cs	-828
ral	-829
ived	-830
▁performed	-831
▁vir	-832
▁tumor	-833
▁observed	-834
▁loc	-835
ike	-836
erative	-837
▁sens	-838
ize	-839
ival	-840
abol	-841
▁min	-842
▁10	-843
ful	-844
.0	-845
▁invol	-846
▁only	-847
over	-848
▁valu	-849
echn	-850
ceptor	-851
▁rate	-852
▁comb	-853
based	-854
othe	-855
▁neuro	-856
ured	-857
cri	-858
▁based	-859
▁main	-860
▁surv	-861
▁blood	-862
▁women	-863
▁children	-864
▁[	-865
centr	-866
▁cyt	-867
▁u	-868
gest	-869
▁aut	-870
▁ep	-871
omy	-872
.1	-873
ores	-874
▁resear	-875
▁appl	-876
▁concentr	-877
tivity	-878
cin	-879
▁techn	-880
fore	-881
its	-882
ene	-883
ough	-884
reated	-885
ospit	-886
▁mice	-887
cr	-888
ascular	-889
▁suggest	-890
▁cases	-891
▁numb	-892
▁changes	-893
▁could	-894
trac	-895
.2	-896
▁lower	-897
lis	-898
ateg	-899
▁0.0	-900
ths	-901
▁vit	-902
▁metabol	-903
ory	-904
ould	-905
▁tra	-906
.3	-907
▁pathw	-908
▁my	-909
▁findings	-910
▁reve	-911
acy	-912
▁outcomes	-913
min	-914
▁(2	-915
-3	-916
nal	-917
▁genes	-918
▁bas	-919
▁those	-920
isms	-921
ise	-922
ormal	-923
ock	-924
qui	-925
ek	-926
▁prot	-927
iter	-928
▁specific	-929
▁individ	-930
▁receptor	-931
tis	-932
ydro	-933
ross	-934
▁selec	-935
▁sym	-936
▁evidence	-937
▁occ	-938
▁need	-939
▁work	-940
ently	-941
ety	-942
▁cal	-943
gan	-944
co	-945
▁rat	-946
ie	-947
ptom	-948
▁chem	-949
▁lim	-950
▁provid	-951
▁del	-952
▁ext	-953
ental	-954
▁12	-955
aging	-956
▁pa	-957
▁cent	-958
▁individual	-959
▁common	-960
▁while	-961
▁mean	-962
ness	-963
vir	-964
ucle	-965
▁95%	-966
▁elec	-967
▁peri	-968
ited	-969
ption	-970
ages	-971
▁primary	-972
▁research	-973
▁improve	-974
▁0.00	-975
▁within	-976
▁hospit	-977
.7	-978
▁interven	-979
.4	-980
ody	-981
▁mal	-982
old	-983
til	-984
▁ps	-985
▁population	-986
▁sever	-987
requ	-988
▁el	-989
arge	-990
▁design	-991
▁expl	-992
ogn	-993
osph	-994
▁dep	-995
induced	-996
crib	-997
▁growth	-998
▁compar	-999
▁here	-1000
▁sequ	-1001
▁survival	-1002
▁analy	-1003
▁complex	-1004
▁reveal	-1005
▁included	-1006
▁stress	-1007
▁type	-1008
ses	-1009
▁bre	-1010
▁signal	-1011
▁number	-1012
ane	-1013
eration	-1014
▁current	-1015
.6	-1016
▁sampl	-1017
ice	-1018
▁reported	-1019
af	-1020
int	-1021
▁expos	-1022
▁radi	-1023
.5	-1024
arm	-1025
▁increase	-1026
▁vs	-1027
havi	-1028
ues	-1029
ty	-1030
ily	-1031
▁diagnos	-1032
ang	-1033
▁mus	-1034
ving	-1035
▁inte	-1036
▁early	-1037
▁cd	-1038
ics	-1039
▁inflamm	-1040
ins	-1041
▁cap	-1042
▁without	-1043
▁novel	-1044
▁case	-1045
▁addition	-1046
.8	-1047
▁influ	-1048
hip	-1049
▁months	-1050
rect	-1051
istr	-1052
▁behavi	-1053
▁fib	-1054
operative	-1055
▁prob	-1056
par	-1057
otic	-1058
▁pe	-1059
▁underst	-1060
▁rati	-1061
jor	-1062
▁gra	-1063
lev	-1064
▁inform	-1065
▁species	-1066
▁z	-1067
ties	-1068
▁prov	-1069
verse	-1070
▁where	-1071
▁pur	-1072
▁major	-1073
▁cy	-1074
▁prof	-1075
▁vis	-1076
vere	-1077
▁av	-1078
▁symptom	-1079
vious	-1080
▁infection	-1081
▁set	-1082
▁objective	-1083
▁mater	-1084
▁positive	-1085
▁quality	-1086
▁sing	-1087
atis	-1088
▁remain	-1089
▁tissue	-1090
▁mark	-1091
amet	-1092
▁reduced	-1093
▁pers	-1094
▁subjec	-1095
ning	-1096
con	-1097
▁surgery	-1098
tained	-1099
▁requi	-1100
zed	-1101
led	-1102
▁frequ	-1103
▁lif	-1104
▁differences	-1105
▁diagnosis	-1106
▁regul	-1107
ex	-1108
▁dna	-1109
▁simil	-1110
vers	-1111
▁plas	-1112
▁proteins	-1113
▁impl	-1114
▁rece	-1115
▁pat	-1116
▁functional	-1117
▁enh	-1118
▁brain	-1119
atal	-1120
▁ed	-1121
me	-1122
ink	-1123
▁hyper	-1124
bi	-1125
▁ol	-1126
pose	-1127
.9	-1128
▁do	-1129
term	-1130
▁association	-1131
cle	-1132
▁single	-1133
ior	-1134
▁sol	-1135
eu	-1136
0%	-1137
▁each	-1138
▁mat	-1139
▁prac	-1140
▁molecular	-1141
ci	-1142
▁experim	-1143
▁lead	-1144
▁tes	-1145
▁memb	-1146
och	-1147
1,	-1148
▁inj	-1149
use	-1150
▁differenti	-1151
▁period	-1152
ft	-1153
▁class	-1154
▁val	-1155
▁flu	-1156
▁participants	-1157
▁previous	-1158
ves	-1159
▁hospital	-1160
ypes	-1161
erc	-1162
▁chron	-1163
▁adv	-1164
ically	-1165
▁strateg	-1166
▁report	-1167
ography	-1168
▁resist	-1169
▁lip	-1170
▁diab	-1171
gf	-1172
▁approach	-1173
▁hem	-1174
etic	-1175
omet	-1176
▁organ	-1177
unt	-1178
▁decreased	-1179
▁measure	-1180
agement	-1181
ening	-1182
▁evaluated	-1183
▁large	-1184
▁rand	-1185
▁bec	-1186
tality	-1187
uce	-1188
▁random	-1189
esis	-1190
▁pain	-1191
▁effective	-1192
▁they	-1193
▁related	-1194
▁describ	-1195
▁injur	-1196
▁mortality	-1197
▁again	-1198
iel	-1199
▁fr	-1200
▁-	-1201
anced	-1202
▁pub	-1203
▁great	-1204
▁samples	-1205
▁identify	-1206
▁chronic	-1207
▁condi	-1208
▁second	-1209
▁due	-1210
gative	-1211
▁revealed	-1212
▁200	-1213
▁multiple	-1214
ced	-1215
▁poss	-1216
▁mir	-1217
▁genetic	-1218
▁acute	-1219
ych	-1220
ified	-1221
▁transcri	-1222
▁quan	-1223
▁app	-1224
air	-1225
viron	-1226
▁models	-1227
▁nan	-1228
▁initi	-1229
▁characteris	-1230
▁prol	-1231
▁week	-1232
%,	-1233
ressed	-1234
▁against	-1235
spec	-1236
▁contrib	-1237
ca	-1238
otherap	-1239
▁stat	-1240
medi	-1241
▁stand	-1242
▁fl	-1243
ste	-1244
cell	-1245
xim	-1246
▁isol	-1247
▁provide	-1248
eng	-1249
▁fam	-1250
▁mg	-1251
▁conditions	-1252
▁did	-1253
▁er	-1254
▁correl	-1255
eutic	-1256
▁similar	-1257
▁some	-1258
▁mechanisms	-1259
ardi	-1260
▁hep	-1261
▁overall	-1262
▁should	-1263
▁fem	-1264
▁(9	-1265
▁calc	-1266
▁activation	-1267
▁relations	-1268
sc	-1269
▁vol	-1270
inf	-1271
▁about	-1272
▁(3	-1273
▁estim	-1274
▁treated	-1275
▁mm	-1276
▁small	-1277
▁following	-1278
▁nucle	-1279
▁days	-1280
▁medical	-1281
▁imaging	-1282
▁liver	-1283
▁rates	-1284
▁bacter	-1285
roph	-1286
▁commun	-1287
▁understand	-1288
▁phen	-1289
▁il	-1290
▁ratio	-1291
hesis	-1292
▁tem	-1293
▁investigated	-1294
tros	-1295
▁demonstrated	-1296
2,	-1297
▁assessed	-1298
▁ran	-1299
▁ve	-1300
though	-1301
▁information	-1302
zym	-1303
▁scre	-1304
1)	-1305
▁four	-1306
▁although	-1307
▁life	-1308
lled	-1309
▁normal	-1310
gr	-1311
▁conduc	-1312
ax	-1313
▁impact	-1314
▁ir	-1315
▁est	-1316
asing	-1317
ynam	-1318
icity	-1319
▁serum	-1320
▁outcome	-1321
▁collec	-1322
▁poly	-1323
ind	-1324
omic	-1325
ites	-1326
▁whether	-1327
▁19	-1328
▁gu	-1329
▁relationship	-1330
▁management	-1331
▁will	-1332
▁phosph	-1333
▁sk	-1334
ake	-1335
▁polym	-1336
▁developed	-1337
ification	-1338
ick	-1339
ust	-1340
▁pattern	-1341
lymph	-1342
eth	-1343
erv	-1344
onal	-1345
elf	-1346
oss	-1347
ension	-1348
▁techniqu	-1349
▁breast	-1350
las	-1351
▁therapeutic	-1352
▁signaling	-1353
asis	-1354
▁experi	-1355
▁bone	-1356
ae	-1357
▁vitro	-1358
▁virus	-1359
fic	-1360
▁proper	-1361
▁synt	-1362
ish	-1363
▁hydro	-1364
▁"	-1365
▁less	-1366
▁environ	-1367
▁stim	-1368
▁sus	-1369
50	-1370
sequ	-1371
ences	-1372
uss	-1373
▁preval	-1374
otherapy	-1375
ocyt	-1376
▁support	-1377
▁several	-1378
10	-1379
rec	-1380
lial	-1381
▁lung	-1382
ission	-1383
year	-1384
rome	-1385
▁occur	-1386
line	-1387
▁induced	-1388
▁mass	-1389
▁diseases	-1390
▁admin	-1391
rial	-1392
aneous	-1393
▁biom	-1394
▁exposure	-1395
rop	-1396
▁measured	-1397
ylation	-1398
▁ce	-1399
icient	-1400
▁determine	-1401
2)	-1402
▁presence	-1403
rane	-1404
▁resistance	-1405
▁sugges	-1406
▁dys	-1407
▁evaluate	-1408
amin	-1409
▁x	-1410
▁arter	-1411
▁recom	-1412
▁cir	-1413
▁surf	-1414
▁lymph	-1415
▁coh	-1416
▁vers	-1417
opath	-1418
▁adj	-1419
▁death	-1420
▁injury	-1421
▁body	-1422
▁ke	-1423
ications	-1424
▁symptoms	-1425
▁pathway	-1426
opt	-1427
etes	-1428
▁synd	-1429
actions	-1430
▁red	-1431
▁ur	-1432
▁nec	-1433
plement	-1434
▁via	-1435
▁su	-1436
gra	-1437
▁line	-1438
ivo	-1439
▁known	-1440
▁mit	-1441
▁enzym	-1442
itivity	-1443
▁intra	-1444
▁many	-1445
specific	-1446
▁psych	-1447
to	-1448
▁sex	-1449
▁vi	-1450
oles	-1451
tered	-1452
▁dose	-1453
▁dom	-1454
ield	-1455
ision	-1456
▁if	-1457
acc	-1458
ulations	-1459
ogenesis	-1460
▁analyzed	-1461
▁avail	-1462
▁neur	-1463
▁negative	-1464
▁assessment	-1465
ulin	-1466
▁his	-1467
▁compound	-1468
tory	-1469
epti	-1470
ensity	-1471
olic	-1472
▁performance	-1473
▁involved	-1474
ns	-1475
pe	-1476
▁production	-1477
▁net	-1478
=0.	-1479
▁foc	-1480
▁rats	-1481
▁self	-1482
tric	-1483
▁like	-1484
-4	-1485
▁vivo	-1486
vent	-1487
▁paramet	-1488
▁bene	-1489
▁local	-1490
▁cult	-1491
▁mr	-1492
▁subjects	-1493
▁ang	-1494
olution	-1495
▁success	-1496
▁surve	-1497
▁pharm	-1498
▁proced	-1499
pr	-1500
▁valid	-1501
▁gas	-1502
▁hist	-1503
▁fail	-1504
dependent	-1505
gn	-1506
▁severe	-1507
▁te	-1508
▁18	-1509
▁loss	-1510
▁confir	-1511
iat	-1512
▁diet	-1513
ocy	-1514
lished	-1515
▁15	-1516
▁status	-1517
▁material	-1518
▁ret	-1519
▁diabetes	-1520
▁strain	-1521
▁purpose	-1522
eline	-1523
3,	-1524
▁ii	-1525
▁11	-1526
▁thus	-1527
▁anim	-1528
▁produc	-1529
▁mechanism	-1530
icacy	-1531
atin	-1532
▁statis	-1533
▁conducted	-1534
ately	-1535
▁ul	-1536
▁detection	-1537
▁14	-1538
▁ques	-1539
▁les	-1540
▁lab	-1541
mental	-1542
▁various	-1543
arc	-1544
istic	-1545
▁independent	-1546
▁obtained	-1547
pa	-1548
▁24	-1549
▁abs	-1550
ade	-1551
ists	-1552
▁structure	-1553
▁characteristics	-1554
pir	-1555
▁so	-1556
▁index	-1557
▁repres	-1558
▁analyses	-1559
itis	-1560
▁healthy	-1561
▁tox	-1562
▁complic	-1563
tif	-1564
▁mac	-1565
▁investigate	-1566
ld	-1567
▁cle	-1568
▁increasing	-1569
atures	-1570
▁responses	-1571
▁metast	-1572
▁antib	-1573
▁before	-1574
▁pul	-1575
ocial	-1576
▁surgical	-1577
▁controls	-1578
▁recent	-1579
▁score	-1580
▁oxid	-1581
▁relative	-1582
tex	-1583
▁immune	-1584
▁direct	-1585
▁individuals	-1586
▁supp	-1587
▁syndrome	-1588
▁evaluation	-1589
▁atten	-1590
▁prevalence	-1591
▁formation	-1592
▁adul	-1593
ised	-1594
copy	-1595
▁intervention	-1596
▁strong	-1597
▁carcin	-1598
ancy	-1599
▁contr	-1600
▁gluc	-1601
▁region	-1602
oh	-1603
▁att	-1604
▁ref	-1605
▁progn	-1606
▁improved	-1607
▁optim	-1608
▁values	-1609
work	-1610
▁μ	-1611
▁men	-1612
▁discuss	-1613
▁cohort	-1614
ditional	-1615
▁practi	-1616
▁ach	-1617
otype	-1618
▁emerg	-1619
▁difference	-1620
▁chall	-1621
▁binding	-1622
▁part	-1623
▁behavior	-1624
▁key	-1625
uted	-1626
▁sal	-1627
▁range	-1628
uk	-1629
▁properties	-1630
▁apopt	-1631
▁efficacy	-1632
ogenic	-1633
br	-1634
gl	-1635
▁concentrations	-1636
▁unc	-1637
-6	-1638
▁estab	-1639
like	-1640
▁plasma	-1641
iciency	-1642
▁change	-1643
▁20	-1644
▁(4	-1645
▁prolif	-1646
▁pregn	-1647
ii	-1648
ither	-1649
▁cross	-1650
ording	-1651
▁know	-1652
▁therefore	-1653
ouse	-1654
go	-1655
eric	-1656
▁13	-1657
▁hel	-1658
oring	-1659
▁trial	-1660
hibition	-1661
▁size	-1662
▁promot	-1663
▁examined	-1664
▁accur	-1665
▁weight	-1666
▁particular	-1667
▁reduction	-1668
▁16	-1669
▁concentration	-1670
▁press	-1671
ules	-1672
ochem	-1673
▁resid	-1674
▁better	-1675
▁general	-1676
▁heart	-1677
▁focus	-1678
▁chrom	-1679
ause	-1680
iatric	-1681
▁cogn	-1682
plant	-1683
▁understanding	-1684
▁weeks	-1685
▁determined	-1686
po	-1687
▁cri	-1688
onic	-1689
istration	-1690
▁inhibition	-1691
▁tool	-1692
▁30	-1693
5,	-1694
▁surface	-1695
ising	-1696
▁medi	-1697
▁infec	-1698
▁regression	-1699
5).	-1700
▁parameters	-1701
▁detected	-1702
▁gly	-1703
▁cardiac	-1704
ilit	-1705
▁trials	-1706
12	-1707
tives	-1708
▁greater	-1709
rh	-1710
ateral	-1711
▁sch	-1712
lys	-1713
bid	-1714
▁hiv	-1715
▁compon	-1716
5)	-1717
▁liter	-1718
fs	-1719
▁emb	-1720
▁available	-1721
▁achie	-1722
rs	-1723
iving	-1724
▁integr	-1725
▁train	-1726
▁distrib	-1727
▁highly	-1728
▁wor	-1729
emia	-1730
▁water	-1731
ovascular	-1732
▁dynam	-1733
▁adults	-1734
▁muscle	-1735
▁value	-1736
encing	-1737
cept	-1738
ner	-1739
▁oste	-1740
▁ter	-1741
▁family	-1742
▁active	-1743
▁physical	-1744
vic	-1745
▁whereas	-1746
orph	-1747
more	-1748
▁network	-1749
oad	-1750
verage	-1751
nas	-1752
ensive	-1753
1).	-1754
▁assay	-1755
eding	-1756
▁deliver	-1757
▁incidence	-1758
uture	-1759
ledge	-1760
ml	-1761
ances	-1762
inc	-1763
▁poor	-1764
4,	-1765
▁der	-1766
▁events	-1767
▁vacc	-1768
▁rap	-1769
▁sensitivity	-1770
)-	-1771
▁exhibit	-1772
▁kin	-1773
▁program	-1774
▁standard	-1775
▁extrac	-1776
▁%	-1777
▁across	-1778
▁knowledge	-1779
▁add	-1780
ective	-1781
▁versus	-1782
▁stem	-1783
▁fat	-1784
az	-1785
▁complications	-1786
▁biological	-1787
mit	-1788
ysis	-1789
2-	-1790
▁comparis	-1791
ographic	-1792
▁setting	-1793
ressive	-1794
▁volum	-1795
▁intro	-1796
▁any	-1797
▁baseline	-1798
▁contin	-1799
▁artic	-1800
ators	-1801
aining	-1802
ored	-1803
orders	-1804
▁pri	-1805
▁furthermore	-1806
▁circ	-1807
bl	-1808
inant	-1809
▁medic	-1810
▁retros	-1811
idered	-1812
active	-1813
▁oper	-1814
lying	-1815
▁screening	-1816
▁phase	-1817
▁shown	-1818
ters	-1819
let	-1820
▁considered	-1821
▁compos	-1822
ocytes	-1823
▁because	-1824
▁inflammatory	-1825
▁down	-1826
▁cat	-1827
ration	-1828
▁disorders	-1829
▁combination	-1830
▁pressure	-1831
▁food	-1832
▁systems	-1833
▁literature	-1834
▁pharmac	-1835
▁social	-1836
▁sw	-1837
▁membrane	-1838
ides	-1839
amp	-1840
▁nur	-1841
▁cellular	-1842
tically	-1843
func	-1844
▁male	-1845
1-	-1846
▁practice	-1847
ference	-1848
▁possible	-1849
▁morph	-1850
ode	-1851
▁pap	-1852
▁mot	-1853
▁flow	-1854
▁future	-1855
▁cur	-1856
<0.	-1857
▁consist	-1858
ops	-1859
▁sti	-1860
▁yo	-1861
olar	-1862
▁β	-1863
ochond	-1864
reb	-1865
mission	-1866
▁consid	-1867
▁apoptosis	-1868
▁allow	-1869
▁underw	-1870
arch	-1871
ule	-1872
▁area	-1873
▁magn	-1874
▁rna	-1875
▁influence	-1876
▁mutations	-1877
▁oral	-1878
▁state	-1879
▁reduc	-1880
▁ent	-1881
▁pepti	-1882
iological	-1883
▁received	-1884
0,	-1885
nf	-1886
▁obes	-1887
▁drugs	-1888
▁features	-1889
▁progression	-1890
inary	-1891
▁educ	-1892
▁proliferation	-1893
▁monit	-1894
▁pros	-1895
▁relev	-1896
▁according	-1897
▁equ	-1898
▁question	-1899
ler	-1900
tors	-1901
bs	-1902
▁either	-1903
eness	-1904
▁likely	-1905
▁required	-1906
mend	-1907
▁(5	-1908
▁renal	-1909
▁underwent	-1910
▁diagnostic	-1911
▁dam	-1912
ologic	-1913
▁domain	-1914
ects	-1915
▁measures	-1916
▁strategies	-1917
▁represent	-1918
▁repl	-1919
▁sample	-1920
▁benef	-1921
▁heter	-1922
▁play	-1923
▁ful	-1924
▁muc	-1925
▁studied	-1926
▁pathways	-1927
▁invas	-1928
▁cognitive	-1929
▁guid	-1930
rest	-1931
▁correlation	-1932
order	-1933
▁adult	-1934
▁saf	-1935
▁being	-1936
eff	-1937
▁q	-1938
▁rele	-1939
com	-1940
▁six	-1941
▁cause	-1942
▁carb	-1943
▁collected	-1944
▁them	-1945
▁(95%	-1946
▁short	-1947
▁interaction	-1948
▁mitochond	-1949
▁median	-1950
ibility	-1951
ergy	-1952
▁regulation	-1953
▁her	-1954
▁stage	-1955
ellular	-1956
urrence	-1957
▁metabolic	-1958
▁ct	-1959
ially	-1960
▁young	-1961
chem	-1962
▁electro	-1963
▁util	-1964
▁100	-1965
▁previously	-1966
▁hypot	-1967
▁same	-1968
▁lipid	-1969
▁might	-1970
get	-1971
▁cop	-1972
▁quantit	-1973
▁safety	-1974
▁phot	-1975
▁systematic	-1976
▁failure	-1977
ards	-1978
▁recommend	-1979
cence	-1980
fusion	-1981
▁link	-1982
▁17	-1983
▁prost	-1984
▁day	-1985
▁tumors	-1986
▁inflammation	-1987
▁scores	-1988
▁ability	-1989
▁compounds	-1990
▁criter	-1991
monary	-1992
▁adverse	-1993
▁proble	-1994
▁tissues	-1995
▁followed	-1996
▁skin	-1997
▁visual	-1998
▁training	-1999
▁sin	-2000
▁correlated	-2001
▁five	-2002
▁combined	-2003
▁ec	-2004
struc	-2005
▁(6	-2006
▁types	-2007
▁tested	-2008
bo	-2009
▁moder	-2010
▁coun	-2011
▁electr	-2012
▁place	-2013
▁complete	-2014
▁interactions	-2015
▁>	-2016
▁br	-2017
▁glucose	-2018
posed	-2019
overy	-2020
16	-2021
tin	-2022
3)	-2023
otox	-2024
tial	-2025
oy	-2026
rosis	-2027
▁postoperative	-2028
izing	-2029
▁carcinoma	-2030
▁critical	-2031
▁result	-2032
▁epit	-2033
aff	-2034
hol	-2035
▁micros	-2036
▁nat	-2037
▁eth	-2038
▁rapid	-2039
ina	-2040
▁processes	-2041
des	-2042
ai	-2043
▁stro	-2044
▁central	-2045
enced	-2046
▁limited	-2047
▁delivery	-2048
▁activities	-2049
oxid	-2050
mediated	-2051
▁indicated	-2052
▁pd	-2053
▁prevent	-2054
▁experimental	-2055
ocardi	-2056
▁then	-2057
tib	-2058
▁often	-2059
▁epid	-2060
▁ill	-2061
ire	-2062
▁transplant	-2063
▁sa	-2064
▁sl	-2065
vement	-2066
▁ess	-2067
ygen	-2068
▁bur	-2069
utri	-2070
▁contrast	-2071
ering	-2072
trans	-2073
▁super	-2074
▁vascular	-2075
▁demonstrate	-2076
oplas	-2077
ables	-2078
▁comparison	-2079
▁elev	-2080
ital	-2081
▁moreover	-2082
hr	-2083
▁eng	-2084
copic	-2085
▁da	-2086
▁mig	-2087
▁challen	-2088
▁tub	-2089
▁ver	-2090
▁injec	-2091
mic	-2092
set	-2093
▁interval	-2094
▁randomized	-2095
▁prior	-2096
▁presented	-2097
▁sum	-2098
▁characterized	-2099
els	-2100
▁remains	-2101
▁wide	-2102
opro	-2103
▁cardiovascular	-2104
▁sour	-2105
hest	-2106
▁interventions	-2107
▁extr	-2108
pre	-2109
▁tow	-2110
ually	-2111
aking	-2112
ask	-2113
▁fin	-2114
▁scale	-2115
▁plant	-2116
ople	-2117
▁controlled	-2118
▁successful	-2119
anal	-2120
%),	-2121
▁lesions	-2122
▁lack	-2123
▁administration	-2124
ulating	-2125
▁secondary	-2126
▁confidence	-2127
▁aimed	-2128
▁paren	-2129
▁criteria	-2130
▁mouse	-2131
kn	-2132
sp	-2133
▁left	-2134
▁subst	-2135
ole	-2136
ength	-2137
▁enhanced	-2138
▁stroke	-2139
▁older	-2140
▁decrease	-2141
kg	-2142
terior	-2143
▁order	-2144
type	-2145
▁applied	-2146
▁very	-2147
▁expressed	-2148
▁cycl	-2149
▁community	-2150
▁genome	-2151
▁temper	-2152
▁patterns	-2153
▁bir	-2154
▁female	-2155
tle	-2156
▁preven	-2157
ney	-2158
▁kid	-2159
▁volume	-2160
▁hom	-2161
▁caused	-2162
▁frequency	-2163
▁rare	-2164
▁bel	-2165
vices	-2166
▁mel	-2167
yr	-2168
▁survey	-2169
▁insulin	-2170
▁25	-2171
+)	-2172
▁site	-2173
ogene	-2174
▁confirmed	-2175
▁biomark	-2176
▁ic	-2177
▁implement	-2178
cd	-2179
▁coll	-2180
▁ped	-2181
▁provides	-2182
the	-2183
-5	-2184
18	-2185
▁differentiation	-2186
▁inhibitor	-2187
▁bio	-2188
▁.	-2189
▁1,	-2190
▁recogn	-2191
▁α	-2192
▁0.01	-2193
▁adap	-2194
ling	-2195
ove	-2196
▁sle	-2197
dom	-2198
▁testing	-2199
▁help	-2200
▁block	-2201
▁datab	-2202
▁functions	-2203
associ	-2204
▁glob	-2205
▁technique	-2206
▁count	-2207
yro	-2208
▁people	-2209
▁ms	-2210
▁mid	-2211
amine	-2212
▁ey	-2213
▁lig	-2214
▁quantitative	-2215
▁rh	-2216
7,	-2217
function	-2218
arding	-2219
▁application	-2220
▁observ	-2221
▁markers	-2222
▁os	-2223
.,	-2224
utes	-2225
.5%	-2226
▁carri	-2227
ivers	-2228
▁real	-2229
▁objectives	-2230
▁indicate	-2231
ably	-2232
ales	-2233
▁altern	-2234
▁cost	-2235
respon	-2236
ier	-2237
14	-2238
regulated	-2239
▁dos	-2240
13	-2241
▁regions	-2242
▁essential	-2243
▁damage	-2244
▁exerc	-2245
rob	-2246
▁useful	-2247
emic	-2248
▁limit	-2249
▁subsequ	-2250
itud	-2251
aps	-2252
md	-2253
aches	-2254
bp	-2255
▁cereb	-2256
▁ov	-2257
associated	-2258
uit	-2259
6,	-2260
▁areas	-2261
hydro	-2262
vice	-2263
pati	-2264
20	-2265
ocol	-2266
▁pulmonary	-2267
lation	-2268
▁prec	-2269
ray	-2270
▁'	-2271
▁throm	-2272
▁inhibitors	-2273
pite	-2274
▁sil	-2275
▁isolated	-2276
▁structural	-2277
▁identification	-2278
▁enc	-2279
▁content	-2280
odies	-2281
▁good	-2282
▁alter	-2283
▁access	-2284
▁potenti	-2285
▁transcription	-2286
▁meta	-2287
▁despite	-2288
man	-2289
▁multiv	-2290
▁strategy	-2291
▁distribution	-2292
▁continu	-2293
tras	-2294
▁few	-2295
▁consum	-2296
▁average	-2297
ethyl	-2298
▁minim	-2299
ochemical	-2300
pri	-2301
▁improvement	-2302
▁reduce	-2303
▁public	-2304
▁sci	-2305
ulate	-2306
▁hip	-2307
▁materials	-2308
▁lear	-2309
▁angi	-2310
▁mrna	-2311
ours	-2312
▁disorder	-2313
▁epithe	-2314
lor	-2315
▁malign	-2316
sive	-2317
ining	-2318
▁regarding	-2319
mi	-2320
▁still	-2321
▁log	-2322
▁metabolism	-2323
estinal	-2324
▁ig	-2325
▁reaction	-2326
▁additional	-2327
uble	-2328
▁kinase	-2329
ries	-2330
ided	-2331
▁home	-2332
ports	-2333
▁infections	-2334
▁free	-2335
▁(7	-2336
8,	-2337
▁diss	-2338
ture	-2339
▁pregnancy	-2340
▁populations	-2341
▁importance	-2342
enz	-2343
9,	-2344
▁history	-2345
activ	-2346
▁≥	-2347
ariate	-2348
▁orig	-2349
▁prote	-2350
▁least	-2351
▁field	-2352
ocyte	-2353
ession	-2354
pecially	-2355
▁retrospective	-2356
▁go	-2357
ands	-2358
▁underlying	-2359
▁synthesis	-2360
▁repro	-2361
▁coron	-2362
%).	-2363
omal	-2364
17	-2365
▁percent	-2366
▁would	-2367
▁national	-2368
▁selected	-2369
▁even	-2370
▁release	-2371
▁bacterial	-2372
ints	-2373
time	-2374
▁fluores	-2375
sh	-2376
be	-2377
group	-2378
▁condition	-2379
▁soci	-2380
▁sites	-2381
okine	-2382
grad	-2383
pv	-2384
going	-2385
3-	-2386
▁mitochondrial	-2387
row	-2388
▁artery	-2389
lex	-2390
▁kidney	-2391
▁endothe	-2392
inflamm	-2393
▁phosphor	-2394
ploy	-2395
▁questionna	-2396
▁tests	-2397
▁initial	-2398
day	-2399
▁0.9	-2400
▁describe	-2401
▁colon	-2402
ustr	-2403
▁oxygen	-2404
▁ultras	-2405
▁abn	-2406
▁diagnosed	-2407
▁prospective	-2408
▁experience	-2409
▁especially	-2410
▁intrac	-2411
yst	-2412
▁repe	-2413
▁cm	-2414
▁(0.	-2415
▁ele	-2416
ount	-2417
▁light	-2418
▁panc	-2419
▁energy	-2420
▁nutri	-2421
▁bar	-2422
▁summ	-2423
▁enzyme	-2424
▁oxidative	-2425
▁(8	-2426
rag	-2427
▁hypert	-2428
ights	-2429
▁propor	-2430
▁protocol	-2431
▁hy	-2432
▁approaches	-2433
▁fil	-2434
▁contex	-2435
log	-2436
▁mix	-2437
▁exercise	-2438
▁accum	-2439
▁mutation	-2440
▁needed	-2441
▁suggesting	-2442
▁labor	-2443
▁affected	-2444
ostic	-2445
▁polymorph	-2446
▁aden	-2447
▁giv	-2448
1),	-2449
▁host	-2450
care	-2451
▁agg	-2452
▁length	-2453
pected	-2454
rogen	-2455
▁duration	-2456
ool	-2457
15	-2458
▁depression	-2459
▁techniques	-2460
▁natural	-2461
▁described	-2462
▁conven	-2463
▁sequence	-2464
istry	-2465
ulf	-2466
▁recently	-2467
▁adoles	-2468
▁highl	-2469
▁impair	-2470
▁mem	-2471
▁perip	-2472
▁measurements	-2473
▁quantif	-2474
▁chemical	-2475
dr	-2476
▁proposed	-2477
25	-2478
▁chemotherapy	-2479
▁vent	-2480
occ	-2481
▁nor	-2482
▁mes	-2483
▁affect	-2484
ik	-2485
▁rs	-2486
▁maxim	-2487
▁implant	-2488
ones	-2489
▁agents	-2490
ino	-2491
▁thir	-2492
otypes	-2493
▁air	-2494
met	-2495
▁capac	-2496
piratory	-2497
▁provided	-2498
pression	-2499
▁animals	-2500
gs	-2501
wide	-2502
▁students	-2503
▁0.8	-2504
▁diffic	-2505
▁coronary	-2506
cler	-2507
istered	-2508
▁tom	-2509
▁term	-2510
▁nit	-2511
▁relevant	-2512
tiveness	-2513
▁world	-2514
ressing	-2515
▁displ	-2516
▁prevention	-2517
▁neurons	-2518
aken	-2519
imens	-2520
▁established	-2521
artic	-2522
▁severity	-2523
dl	-2524
▁appear	-2525
000	-2526
known	-2527
▁defined	-2528
▁reli	-2529
usted	-2530
ophag	-2531
last	-2532
▁fract	-2533
▁secre	-2534
4)	-2535
gether	-2536
▁dysfunction	-2537
▁together	-2538
▁pow	-2539
▁evolution	-2540
▁increases	-2541
▁resulted	-2542
▁profil	-2543
▁sleep	-2544
▁obesity	-2545
▁facilit	-2546
▁strains	-2547
sec	-2548
hood	-2549
▁head	-2550
regulation	-2551
▁0.7	-2552
▁task	-2553
▁suggests	-2554
ortic	-2555
▁induc	-2556
▁smok	-2557
▁mar	-2558
▁ax	-2559
▁education	-2560
▁pancre	-2561
▁nm	-2562
▁doc	-2563
ify	-2564
19	-2565
-7	-2566
▁dri	-2567
▁intr	-2568
da	-2569
▁procedure	-2570
free	-2571
▁examine	-2572
rm	-2573
cv	-2574
▁advanced	-2575
heren	-2576
▁lines	-2577
abil	-2578
oding	-2579
ze	-2580
ids	-2581
lish	-2582
den	-2583
▁record	-2584
▁suggested	-2585
▁aged	-2586
▁ischem	-2587
inflammatory	-2588
▁abnormal	-2589
erve	-2590
oids	-2591
rup	-2592
ror	-2593
▁concer	-2594
▁transfer	-2595
▁prognostic	-2596
▁nanop	-2597
▁plan	-2598
yroid	-2599
did	-2600
▁exc	-2601
▁elevated	-2602
▁exist	-2603
cm	-2604
cy	-2605
▁map	-2606
▁given	-2607
aged	-2608
▁step	-2609
▁treatments	-2610
▁top	-2611
sa	-2612
ficial	-2613
▁antibi	-2614
▁right	-2615
utaneous	-2616
▁environmental	-2617
▁introduction	-2618
ious	-2619
▁systemic	-2620
▁candid	-2621
▁monitoring	-2622
▁lit	-2623
▁alco	-2624
-0.	-2625
icians	-2626
utions	-2627
▁global	-2628
▁neut	-2629
treated	-2630
▁peripher	-2631
▁components	-2632
isted	-2633
▁structures	-2634
▁temperature	-2635
▁alle	-2636
▁associations	-2637
hetic	-2638
arb	-2639
▁context	-2640
▁sn	-2641
▁clus	-2642
▁highest	-2643
omas	-2644
utive	-2645
▁spect	-2646
▁times	-2647
▁iss	-2648
▁traum	-2649
▁she	-2650
ense	-2651
itation	-2652
▁accuracy	-2653
▁variables	-2654
▁endothelial	-2655
▁alternative	-2656
▁od	-2657
ectomy	-2658
pect	-2659
▁open	-2660
▁article	-2661
▁pol	-2662
▁adi	-2663
▁viral	-2664
hers	-2665
▁sequencing	-2666
▁separ	-2667
▁states	-2668
▁fer	-2669
ping	-2670
ss	-2671
▁leading	-2672
▁medicine	-2673
▁environment	-2674
▁whole	-2675
▁hand	-2676
-9	-2677
▁pediatric	-2678
ique	-2679
▁mental	-2680
atitis	-2681
▁bro	-2682
▁enhance	-2683
▁larg	-2684
rim	-2685
▁particularly	-2686
▁repair	-2687
ched	-2688
ceptib	-2689
fac	-2690
▁exhibited	-2691
▁culture	-2692
▁receptors	-2693
▁memory	-2694
▁capacity	-2695
▁resulting	-2696
▁contribute	-2697
▁hepat	-2698
▁toler	-2699
reng	-2700
ument	-2701
▁statistically	-2702
▁load	-2703
▁roles	-2704
▁don	-2705
▁compare	-2706
▁since	-2707
inct	-2708
▁wild	-2709
▁estimated	-2710
ient	-2711
▁22	-2712
odes	-2713
▁consequ	-2714
▁respiratory	-2715
▁consider	-2716
▁alg	-2717
▁magnetic	-2718
▁nanopartic	-2719
▁variation	-2720
▁best	-2721
▁employ	-2722
oti	-2723
▁compl	-2724
▁daily	-2725
ta	-2726
▁selection	-2727
ayed	-2728
dm	-2729
analysis	-2730
▁moderate	-2731
ained	-2732
▁nuclear	-2733
▁leuk	-2734
▁polymer	-2735
▁28	-2736
▁streng	-2737
▁bil	-2738
▁recr	-2739
▁radiation	-2740
▁glyc	-2741
▁embry	-2742
ophil	-2743
ended	-2744
▁5-	-2745
otyp	-2746
▁cer	-2747
ecting	-2748
tation	-2749
▁cycle	-2750
▁alcohol	-2751
▁0.6	-2752
▁read	-2753
oz	-2754
▁special	-2755
▁cos	-2756
pc	-2757
▁action	-2758
▁inhibited	-2759
▁bacteria	-2760
taining	-2761
uv	-2762
pan	-2763
ritis	-2764
▁learning	-2765
11	-2766
▁developing	-2767
priate	-2768
derived	-2769
▁paper	-2770
itu	-2771
▁animal	-2772
▁distinct	-2773
▁targeting	-2774
▁peripheral	-2775
▁chain	-2776
▁clear	-2777
▁div	-2778
▁+	-2779
▁selective	-2780
verex	-2781
▁plate	-2782
▁molecules	-2783
▁maternal	-2784
▁horm	-2785
▁birth	-2786
less	-2787
agen	-2788
▁examination	-2789
lear	-2790
▁0	-2791
range	-2792
▁sem	-2793
▁specificity	-2794
▁thromb	-2795
lr	-2796
oster	-2797
▁macroph	-2798
▁recovery	-2799
▁migration	-2800
▁unknown	-2801
▁50	-2802
obacter	-2803
ricular	-2804
▁promising	-2805
▁ge	-2806
▁conn	-2807
▁enro	-2808
▁suff	-2809
▁0.5	-2810
bidity	-2811
▁prostate	-2812
▁hypertension	-2813
▁oc	-2814
▁calculated	-2815
pd	-2816
▁antic	-2817
30	-2818
▁procedures	-2819
▁require	-2820
▁stimulation	-2821
sm	-2822
▁susceptib	-2823
▁necess	-2824
▁recurrence	-2825
▁peptide	-2826
▁occurred	-2827
eling	-2828
▁toxicity	-2829
positive	-2830
▁alone	-2831
ered	-2832
estern	-2833
rix	-2834
▁epithelial	-2835
put	-2836
▁stability	-2837
umin	-2838
iology	-2839
▁profile	-2840
xi	-2841
▁motor	-2842
▁conventional	-2843
▁intern	-2844
atives	-2845
▁cour	-2846
38	-2847
▁arth	-2848
▁attenu	-2849
▁antibody	-2850
▁catal	-2851
▁density	-2852
▁causes	-2853
▁countries	-2854
▁achieved	-2855
opathy	-2856
-8	-2857
▁dynamics	-2858
▁1.0	-2859
ring	-2860
▁biops	-2861
cers	-2862
▁trig	-2863
▁targets	-2864
elines	-2865
pcr	-2866
▁spati	-2867
▁myocardi	-2868
▁substr	-2869
▁unique	-2870
27	-2871
ck	-2872
▁experiments	-2873
▁chann	-2874
▁deg	-2875
▁assays	-2876
▁plants	-2877
▁categ	-2878
▁products	-2879
▁questionnaire	-2880
▁physiological	-2881
▁implications	-2882
▁series	-2883
etal	-2884
▁tur	-2885
▁include	-2886
▁does	-2887
▁linear	-2888
▁aims	-2889
osa	-2890
etry	-2891
▁overex	-2892
take	-2893
▁regulatory	-2894
▁seg	-2895
▁instit	-2896
▁mamm	-2897
▁ste	-2898
▁americ	-2899
▁along	-2900
▁glut	-2901
▁applications	-2902
gfr	-2903
24	-2904
mod	-2905
▁ml	-2906
▁potentially	-2907
▁21	-2908
▁produced	-2909
▁point	-2910
▁metastasis	-2911
▁detect	-2912
round	-2913
▁promo	-2914
▁basis	-2915
▁stimul	-2916
▁predicted	-2917
▁prognosis	-2918
outh	-2919
neum	-2920
▁predict	-2921
▁tren	-2922
▁reflec	-2923
▁vaccine	-2924
▁cho	-2925
▁tempor	-2926
▁made	-2927
▁typ	-2928
▁little	-2929
▁targeted	-2930
▁guidelines	-2931
mia	-2932
▁respons	-2933
▁predictive	-2934
▁divers	-2935
▁terms	-2936
uring	-2937
aring	-2938
▁jo	-2939
io	-2940
▁barri	-2941
▁fram	-2942
▁antioxid	-2943
▁stable	-2944
▁intake	-2945
▁published	-2946
▁univers	-2947
▁yet	-2948
2.	-2949
▁consistent	-2950
▁26	-2951
hesized	-2952
▁auth	-2953
▁rob	-2954
▁dim	-2955
▁reson	-2956
▁myel	-2957
▁23	-2958
▁power	-2959
▁sof	-2960
▁tomography	-2961
fold	-2962
▁containing	-2963
▁induction	-2964
26	-2965
▁school	-2966
acts	-2967
1.	-2968
ame	-2969
tt	-2970
▁ion	-2971
▁effectiveness	-2972
▁services	-2973
orption	-2974
mp	-2975
);	-2976
▁undergoing	-2977
▁degrad	-2978
▁bal	-2979
asp	-2980
▁gastric	-2981
read	-2982
rehen	-2983
▁therm	-2984
▁acids	-2985
▁resour	-2986
alian	-2987
ococc	-2988
uff	-2989
▁depend	-2990
▁significance	-2991
▁search	-2992
▁multivariate	-2993
▁infants	-2994
▁nerve	-2995
▁0.4	-2996
▁comprehen	-2997
▁biomarkers	-2998
▁ant	-2999
▁internal	-3000
▁respond	-3001
ecutive	-3002
▁acet	-3003
▁melan	-3004
1/	-3005
▁western	-3006
▁antibodies	-3007
▁iv	-3008
▁por	-3009
yg	-3010
ream	-3011
▁currently	-3012
phal	-3013
▁derived	-3014
▁ampl	-3015
dim	-3016
ls	-3017
▁matrix	-3018
▁pcr	-3019
ogl	-3020
▁subsequent	-3021
▁profession	-3022
▁upon	-3023
▁isolates	-3024
▁laboratory	-3025
▁transcrip	-3026
▁finally	-3027
▁.00	-3028
▁transplantation	-3029
bor	-3030
▁reference	-3031
aren	-3032
▁modified	-3033
▁3-	-3034
▁supplement	-3035
ergic	-3036
▁able	-3037
▁side	-3038
2).	-3039
ometry	-3040
uary	-3041
%.	-3042
▁late	-3043
terol	-3044
▁database	-3045
▁famil	-3046
<0.00	-3047
▁40	-3048
▁taken	-3049
▁explore	-3050
▁appropriate	-3051
la	-3052
▁bios	-3053
▁variants	-3054
▁heterogene	-3055
28	-3056
irus	-3057
▁neon	-3058
arian	-3059
▁hal	-3060
▁lat	-3061
▁mri	-3062
▁reproduc	-3063
▁knock	-3064
▁euro	-3065
contro	-3066
▁anxi	-3067
▁ann	-3068
▁reconstr	-3069
tile	-3070
▁resonance	-3071
ogenous	-3072
treat	-3073
agon	-3074
▁fluid	-3075
▁act	-3076
▁frequently	-3077
oun	-3078
▁accumulation	-3079
▁neural	-3080
osome	-3081
mg	-3082
▁pneum	-3083
▁gender	-3084
▁optimal	-3085
▁efficiency	-3086
53	-3087
equ	-3088
▁inn	-3089
▁substan	-3090
▁clinically	-3091
raz	-3092
▁uptake	-3093
ibr	-3094
▁nanoparticles	-3095
pi	-3096
oral	-3097
▁last	-3098
▁vitamin	-3099
▁composition	-3100
▁remo	-3101
sectional	-3102
▁therapies	-3103
▁having	-3104
▁led	-3105
▁eight	-3106
▁involvement	-3107
▁bo	-3108
▁-0.	-3109
nt	-3110
29	-3111
▁hr	-3112
▁benefit	-3113
▁healthcare	-3114
▁detail	-3115
▁commonly	-3116
▁attention	-3117
▁dig	-3118
▁injection	-3119
▁pig	-3120
▁dietary	-3121
▁onset	-3122
▁designed	-3123
inter	-3124
▁27	-3125
ned	-3126
char	-3127
▁2014	-3128
▁cytotox	-3129
▁phosphorylation	-3130
ocal	-3131
▁simple	-3132
▁amino	-3133
▁consumption	-3134
orec	-3135
orts	-3136
▁endos	-3137
],	-3138
▁gastro	-3139
phyl	-3140
▁cs	-3141
▁spectr	-3142
ometric	-3143
▁images	-3144
▁phenotype	-3145
▁decision	-3146
▁resection	-3147
▁persist	-3148
▁direc	-3149
▁che	-3150
▁statistical	-3151
▁full	-3152
▁interview	-3153
▁recorded	-3154
herence	-3155
▁germ	-3156
▁transl	-3157
▁soft	-3158
que	-3159
izes	-3160
▁sensitive	-3161
▁correspon	-3162
▁absence	-3163
lysis	-3164
okines	-3165
plas	-3166
▁placebo	-3167
alk	-3168
▁completed	-3169
▁mainly	-3170
by	-3171
▁fibrosis	-3172
▁scan	-3173
▁position	-3174
23	-3175
▁hb	-3176
▁efficient	-3177
40	-3178
▁yield	-3179
▁establish	-3180
radi	-3181
way	-3182
▁reconstruc	-3183
4-	-3184
▁cerv	-3185
▁mechanical	-3186
ape	-3187
iting	-3188
▁component	-3189
▁measurement	-3190
ems	-3191
inese	-3192
▁onc	-3193
▁grade	-3194
▁hemat	-3195
▁anxiety	-3196
▁transform	-3197
lim	-3198
▁situ	-3199
▁2-	-3200
▁cancers	-3201
▁prep	-3202
▁myocardial	-3203
▁pathogenesis	-3204
onia	-3205
▁ven	-3206
▁safe	-3207
▁processing	-3208
▁satis	-3209
▁ble	-3210
▁ultrasound	-3211
▁thick	-3212
ologies	-3213
ars	-3214
▁recomb	-3215
omer	-3216
▁directly	-3217
mitted	-3218
▁wa	-3219
▁logistic	-3220
▁seen	-3221
▁exposed	-3222
hs	-3223
▁ip	-3224
▁investigation	-3225
inated	-3226
▁unclear	-3227
▁0.3	-3228
▁europe	-3229
▁invasion	-3230
▁diabetic	-3231
▁antigen	-3232
resh	-3233
arr	-3234
▁off	-3235
▁chinese	-3236
▁transmission	-3237
▁proportion	-3238
▁fatty	-3239
▁plac	-3240
6)	-3241
▁auto	-3242
▁plays	-3243
▁difficult	-3244
▁60	-3245
▁qual	-3246
▁aortic	-3247
▁spe	-3248
▁humans	-3249
▁reports	-3250
▁smoking	-3251
▁source	-3252
▁48	-3253
ga	-3254
dis	-3255
▁cerebral	-3256
▁reviewed	-3257
▁spon	-3258
▁fung	-3259
▁microscopy	-3260
▁2013	-3261
▁hepatic	-3262
▁ever	-3263
mediate	-3264
▁problems	-3265
sing	-3266
▁carbon	-3267
▁comprehensive	-3268
encies	-3269
ench	-3270
uter	-3271
▁wound	-3272
▁close	-3273
▁emergency	-3274
▁pc	-3275
▁pancreatic	-3276
aired	-3277
▁coup	-3278
▁impairment	-3279
▁reducing	-3280
▁marker	-3281
▁antim	-3282
ception	-3283
(+)	-3284
▁center	-3285
▁enzymes	-3286
▁preoperative	-3287
▁double	-3288
▁problem	-3289
▁enrolled	-3290
▁spinal	-3291
▁et	-3292
▁classification	-3293
▁females	-3294
rine	-3295
orb	-3296
ula	-3297
▁lay	-3298
icated	-3299
▁course	-3300
ifically	-3301
▁rev	-3302
▁neurolog	-3303
tially	-3304
▁lo	-3305
▁calcium	-3306
▁cervical	-3307
▁pt	-3308
rin	-3309
▁males	-3310
▁dynamic	-3311
cal	-3312
-1)	-3313
▁intracellular	-3314
▁widely	-3315
▁what	-3316
elling	-3317
▁paras	-3318
▁rang	-3319
ending	-3320
▁transport	-3321
▁hours	-3322
▁2,	-3323
erved	-3324
▁autophag	-3325
▁larger	-3326
uration	-3327
umab	-3328
▁indicating	-3329
▁majority	-3330
▁living	-3331
▁epidem	-3332
opo	-3333
▁generation	-3334
▁clinic	-3335
for	-3336
osomal	-3337
▁invasive	-3338
orectal	-3339
path	-3340
▁challenges	-3341
resist	-3342
▁points	-3343
▁degradation	-3344
risk	-3345
activity	-3346
lif	-3347
▁afric	-3348
rie	-3349
▁29	-3350
duce	-3351
▁feas	-3352
▁stages	-3353
▁spl	-3354
▁asth	-3355
▁clos	-3356
oprotein	-3357
▁costs	-3358
▁receiving	-3359
immun	-3360
▁mutant	-3361
▁36	-3362
▁interest	-3363
▁broad	-3364
▁generated	-3365
▁profiles	-3366
other	-3367
▁longer	-3368
▁specifically	-3369
orrh	-3370
fr	-3371
▁polic	-3372
▁rad	-3373
olesterol	-3374
tility	-3375
ella	-3376
▁induce	-3377
mm	-3378
▁deriv	-3379
▁diversity	-3380
▁anat	-3381
eral	-3382
▁fluorescence	-3383
poc	-3384
▁ventricular	-3385
▁ear	-3386
clerosis	-3387
▁white	-3388
▁additionally	-3389
▁continuous	-3390
▁incor	-3391
cents	-3392
▁necessary	-3393
orith	-3394
▁prop	-3395
thal	-3396
▁intestinal	-3397
treatment	-3398
▁administered	-3399
▁reas	-3400
ged	-3401
▁antioxidant	-3402
▁event	-3403
▁hypox	-3404
▁algorith	-3405
▁fast	-3406
▁approxim	-3407
sd	-3408
▁neuronal	-3409
▁carried	-3410
▁strength	-3411
ils	-3412
▁activated	-3413
fa	-3414
▁microb	-3415
▁sequences	-3416
fl	-3417
▁sexual	-3418
▁impaired	-3419
cp	-3420
ancer	-3421
illary	-3422
kele	-3423
▁protective	-3424
▁seven	-3425
▁implementation	-3426
▁orth	-3427
▁mediated	-3428
▁imm	-3429
ohist	-3430
7)	-3431
ought	-3432
▁thyroid	-3433
adi	-3434
-10	-3435
rt	-3436
keletal	-3437
▁const	-3438
▁anterior	-3439
▁fix	-3440
▁origin	-3441
▁regard	-3442
ident	-3443
▁fund	-3444
▁doses	-3445
ember	-3446
▁adolescents	-3447
▁dele	-3448
▁predictors	-3449
-201	-3450
▁alterations	-3451
▁solution	-3452
▁fav	-3453
▁frag	-3454
▁mild	-3455
▁ovarian	-3456
▁benefits	-3457
▁construc	-3458
▁restric	-3459
hab	-3460
▁rout	-3461
▁nf	-3462
▁agent	-3463
▁view	-3464
generation	-3465
▁morbidity	-3466
▁immunohist	-3467
8)	-3468
oe	-3469
90	-3470
▁transition	-3471
ots	-3472
▁coli	-3473
▁cruc	-3474
▁refer	-3475
▁core	-3476
▁adhes	-3477
▁extracellular	-3478
▁inhibitory	-3479
▁spatial	-3480
ultaneous	-3481
▁0.05).	-3482
cellular	-3483
▁ster	-3484
▁fit	-3485
▁mil	-3486
▁nursing	-3487
mentation	-3488
▁odds	-3489
▁emo	-3490
2),	-3491
▁simultaneous	-3492
▁peak	-3493
▁deficiency	-3494
ucid	-3495
▁traditional	-3496
▁prediction	-3497
▁shows	-3498
▁aw	-3499
▁practic	-3500
▁iron	-3501
▁promote	-3502
gal	-3503
▁iii	-3504
▁technology	-3505
▁colorectal	-3506
▁conc	-3507
▁relatively	-3508
▁differential	-3509
artment	-3510
▁consecutive	-3511
▁members	-3512
▁categor	-3513
ocar	-3514
mt	-3515
▁relationships	-3516
▁abund	-3517
▁confirm	-3518
▁percentage	-3519
▁sod	-3520
▁cortex	-3521
urg	-3522
▁spectrom	-3523
▁spectros	-3524
down	-3525
▁altered	-3526
▁pan	-3527
▁feed	-3528
pocamp	-3529
rams	-3530
▁sulf	-3531
▁challenge	-3532
robial	-3533
▁international	-3534
▁extre	-3535
patient	-3536
▁tools	-3537
▁genomic	-3538
hd	-3539
▁toward	-3540
▁electron	-3541
▁microbi	-3542
uts	-3543
▁china	-3544
vas	-3545
▁maximum	-3546
▁image	-3547
▁trauma	-3548
ber	-3549
brid	-3550
▁behavioral	-3551
▁hypothesis	-3552
▁2015	-3553
▁eas	-3554
▁descri	-3555
clin	-3556
▁mob	-3557
▁routine	-3558
▁comm	-3559
▁ak	-3560
▁experiment	-3561
oglob	-3562
cutaneous	-3563
ensional	-3564
▁elder	-3565
▁needs	-3566
▁intensity	-3567
▁ga	-3568
▁jan	-3569
position	-3570
▁old	-3571
▁improving	-3572
▁jap	-3573
▁variability	-3574
%;	-3575
ened	-3576
iquid	-3577
aw	-3578
▁aer	-3579
▁cp	-3580
▁mixed	-3581
dominal	-3582
▁asthma	-3583
▁tnf	-3584
umer	-3585
▁chlor	-3586
tid	-3587
▁projec	-3588
▁incorpor	-3589
▁degree	-3590
level	-3591
phosph	-3592
▁interes	-3593
▁wall	-3594
▁authors	-3595
9)	-3596
▁0.001).	-3597
▁towards	-3598
▁constit	-3599
▁assemb	-3600
▁susceptibility	-3601
▁successfully	-3602
80	-3603
urb	-3604
▁ta	-3605
gu	-3606
▁manner	-3607
▁strongly	-3608
▁conj	-3609
▁malignant	-3610
▁validated	-3611
▁burden	-3612
inity	-3613
anol	-3614
▁disrup	-3615
ull	-3616
▁elucid	-3617
raw	-3618
ylated	-3619
▁joint	-3620
aryn	-3621
▁accom	-3622
▁extensive	-3623
▁temporal	-3624
▁pathological	-3625
▁urinary	-3626
otide	-3627
▁later	-3628
70	-3629
icrobial	-3630
▁dop	-3631
ori	-3632
▁antagon	-3633
▁genotype	-3634
▁divided	-3635
▁shif	-3636
▁remained	-3637
▁programs	-3638
resistant	-3639
ging	-3640
▁sperm	-3641
▁metastatic	-3642
▁interpre	-3643
ese	-3644
▁unit	-3645
▁hippocamp	-3646
bal	-3647
hydrox	-3648
zard	-3649
▁lesion	-3650
▁derm	-3651
▁.0	-3652
odynam	-3653
▁discussed	-3654
▁35	-3655
▁overexpression	-3656
▁2016	-3657
▁linked	-3658
▁methylation	-3659
▁prepar	-3660
▁address	-3661
▁regen	-3662
arily	-3663
▁longitud	-3664
▁rt	-3665
▁infected	-3666
▁star	-3667
pects	-3668
▁cytokines	-3669
itative	-3670
▁elderly	-3671
▁frequent	-3672
▁arterial	-3673
▁much	-3674
▁medication	-3675
aria	-3676
▁involving	-3677
▁alb	-3678
▁lact	-3679
▁past	-3680
▁device	-3681
▁call	-3682
itin	-3683
▁gran	-3684
▁marked	-3685
dle	-3686
imer	-3687
▁subgroup	-3688
▁las	-3689
▁cann	-3690
▁pi	-3691
ophys	-3692
▁nas	-3693
mean	-3694
off	-3695
▁mt	-3696
ili	-3697
ets	-3698
▁variety	-3699
2+	-3700
▁aggreg	-3701
ogenetic	-3702
bc	-3703
▁leads	-3704
osomes	-3705
itable	-3706
▁macrophages	-3707
rich	-3708
▁gli	-3709
▁toxic	-3710
link	-3711
▁antimicrobial	-3712
▁revers	-3713
▁recognition	-3714
ward	-3715
itions	-3716
ework	-3717
▁fraction	-3718
def	-3719
▁chromat	-3720
▁dependent	-3721
acchar	-3722
▁cholesterol	-3723
np	-3724
▁biopsy	-3725
seud	-3726
▁ratios	-3727
acement	-3728
=0.0	-3729
▁responsible	-3730
▁tract	-3731
▁ns	-3732
ostasis	-3733
▁framework	-3734
▁na	-3735
▁cluster	-3736
▁independently	-3737
▁computed	-3738
▁nurses	-3739
▁diverse	-3740
▁eg	-3741
ching	-3742
▁gest	-3743
▁providing	-3744
▁lateral	-3745
60	-3746
▁perce	-3747
▁aspects	-3748
▁crucial	-3749
rac	-3750
▁discrim	-3751
▁pen	-3752
▁extent	-3753
▁satisf	-3754
ogs	-3755
ercul	-3756
▁solid	-3757
▁person	-3758
▁defin	-3759
▁dental	-3760
▁extract	-3761
▁experienced	-3762
▁qualitative	-3763
cyt	-3764
▁gain	-3765
▁bleeding	-3766
▁january	-3767
▁hepatitis	-3768
▁complexes	-3769
▁differ	-3770
▁cryst	-3771
eti	-3772
binding	-3773
▁understood	-3774
▁disch	-3775
pers	-3776
▁haem	-3777
▁forms	-3778
▁numer	-3779
cn	-3780
ymal	-3781
▁communication	-3782
stream	-3783
▁avoid	-3784
ords	-3785
lab	-3786
▁secretion	-3787
▁root	-3788
ings	-3789
▁thor	-3790
▁eye	-3791
▁×	-3792
▁squ	-3793
▁subs	-3794
▁recurrent	-3795
▁alk	-3796
▁tend	-3797
▁hormone	-3798
▁medium	-3799
yth	-3800
▁estimate	-3801
▁become	-3802
tration	-3803
▁third	-3804
3).	-3805
pha	-3806
▁behaviour	-3807
usive	-3808
▁accurate	-3809
▁sources	-3810
cat	-3811
land	-3812
▁developmental	-3813
wh	-3814
back	-3815
▁asym	-3816
▁37	-3817
▁eyes	-3818
▁tet	-3819
▁liquid	-3820
▁fish	-3821
rate	-3822
▁pet	-3823
▁arch	-3824
▁inclusion	-3825
point	-3826
▁suppress	-3827
▁skill	-3828
▁collagen	-3829
clinical	-3830
dimensional	-3831
▁robust	-3832
▁advant	-3833
apse	-3834
onomic	-3835
▁recommendations	-3836
amide	-3837
▁longitudinal	-3838
ope	-3839
▁engine	-3840
▁comparing	-3841
inations	-3842
▁autophagy	-3843
▁practices	-3844
▁biochemical	-3845
▁upper	-3846
olec	-3847
▁approximately	-3848
21	-3849
▁attrib	-3850
heter	-3851
igen	-3852
2%	-3853
ulatory	-3854
▁agree	-3855
itus	-3856
5),	-3857
▁33	-3858
▁pseud	-3859
portun	-3860
▁thickness	-3861
▁ng	-3862
▁superior	-3863
lasts	-3864
oxide	-3865
▁requires	-3866
-1,	-3867
▁specimens	-3868
▁adjusted	-3869
ternal	-3870
venous	-3871
▁gr	-3872
▁compr	-3873
▁document	-3874
▁corresponding	-3875
▁conclud	-3876
ancies	-3877
▁opportun	-3878
▁mis	-3879
bm	-3880
▁american	-3881
▁spectrometry	-3882
▁bmi	-3883
pp	-3884
organ	-3885
▁sir	-3886
troph	-3887
▁vess	-3888
lytic	-3889
▁university	-3890
▁recommended	-3891
no	-3892
▁infer	-3893
struct	-3894
▁amount	-3895
▁ischemic	-3896
ococcus	-3897
▁insights	-3898
▁hs	-3899
▁hospitals	-3900
ded	-3901
▁econ	-3902
▁removal	-3903
obic	-3904
▁japan	-3905
▁cox	-3906
▁organization	-3907
▁networks	-3908
ata	-3909
▁fully	-3910
▁staining	-3911
5-	-3912
▁united	-3913
▁ech	-3914
2/	-3915
▁morphology	-3916
▁ana	-3917
▁childhood	-3918
▁gre	-3919
igned	-3920
▁aud	-3921
▁final	-3922
▁antibiotic	-3923
▁ten	-3924
▁domains	-3925
▁instr	-3926
▁presentation	-3927
xt	-3928
month	-3929
▁comor	-3930
enty	-3931
tum	-3932
▁obstruc	-3933
▁cortical	-3934
ema	-3935
▁prolong	-3936
▁plat	-3937
phen	-3938
▁fracture	-3939
▁seed	-3940
▁vec	-3941
▁half	-3942
▁tolerance	-3943
uvant	-3944
▁now	-3945
ilities	-3946
raf	-3947
▁service	-3948
▁retinal	-3949
▁influenz	-3950
▁histological	-3951
34	-3952
ished	-3953
▁abdominal	-3954
▁partial	-3955
bb	-3956
▁flex	-3957
▁fusion	-3958
ann	-3959
▁1-	-3960
▁predom	-3961
▁cord	-3962
▁hybrid	-3963
▁ow	-3964
acet	-3965
▁variable	-3966
▁defic	-3967
▁34	-3968
▁twenty	-3969
▁protection	-3970
▁blot	-3971
rol	-3972
▁anest	-3973
▁analysed	-3974
▁potent	-3975
negative	-3976
▁kne	-3977
57	-3978
▁phyl	-3979
▁pathology	-3980
▁cyp	-3981
01).	-3982
▁scaff	-3983
aching	-3984
1%	-3985
▁positively	-3986
▁physicians	-3987
▁ens	-3988
▁lap	-3989
▁far	-3990
▁posterior	-3991
▁settings	-3992
▁olig	-3993
taneous	-3994
yle	-3995
ades	-3996
▁dual	-3997
▁rather	-3998
▁hf	-3999
▁expected	-4000
▁prepared	-4001
▁(1)	-4002
▁conform	-4003
▁recip	-4004
▁behaviors	-4005
adder	-4006
▁illness	-4007
▁manif	-4008
cf	-4009
ped	-4010
▁explored	-4011
ats	-4012
▁transcriptional	-4013
ogens	-4014
ble	-4015
▁pool	-4016
▁plus	-4017
▁nod	-4018
▁fetal	-4019
isation	-4020
▁promoter	-4021
▁nic	-4022
▁contact	-4023
pm	-4024
▁epile	-4025
▁spontaneous	-4026
▁athe	-4027
▁substrate	-4028
▁neonatal	-4029
▁peptides	-4030
▁199	-4031
▁middle	-4032
porter	-4033
ighted	-4034
ocom	-4035
▁force	-4036
▁comparative	-4037
▁micror	-4038
▁slow	-4039
illance	-4040
▁sd	-4041
▁neck	-4042
osin	-4043
▁sed	-4044
▁diamet	-4045
▁nature	-4046
erculosis	-4047
aster	-4048
▁signals	-4049
itude	-4050
angu	-4051
▁stre	-4052
adj	-4053
▁risks	-4054
olved	-4055
▁replication	-4056
▁hcc	-4057
ange	-4058
▁kg	-4059
▁occurrence	-4060
99	-4061
ients	-4062
▁cv	-4063
▁extraction	-4064
▁polymorphisms	-4065
▁coeff	-4066
rna	-4067
▁find	-4068
▁defects	-4069
▁concept	-4070
▁biof	-4071
inate	-4072
▁relation	-4073
cipl	-4074
▁validation	-4075
▁resolution	-4076
▁summar	-4077
▁ub	-4078
▁influenza	-4079
▁challeng	-4080
▁pal	-4081
▁pla	-4082
weight	-4083
▁perceived	-4084
idine	-4085
▁external	-4086
tenance	-4087
▁beneficial	-4088
▁transcript	-4089
▁aging	-4090
version	-4091
overed	-4092
▁working	-4093
▁around	-4094
▁interesting	-4095
37	-4096
▁surveillance	-4097
mat	-4098
▁reconstruction	-4099
ocarcin	-4100
▁neph	-4101
▁aug	-4102
infected	-4103
▁shor	-4104
▁month	-4105
▁recombinant	-4106
otrop	-4107
▁bias	-4108
▁enter	-4109
▁must	-4110
▁contain	-4111
▁complement	-4112
▁esc	-4113
opic	-4114
▁existing	-4115
▁deep	-4116
▁focused	-4117
▁way	-4118
▁generally	-4119
.3%	-4120
▁38	-4121
▁randomly	-4122
▁issues	-4123
▁graft	-4124
▁bu	-4125
▁analyze	-4126
▁rib	-4127
▁infarc	-4128
▁comparable	-4129
<0.0	-4130
▁curve	-4131
-)	-4132
▁induces	-4133
gly	-4134
dose	-4135
ynt	-4136
▁rest	-4137
▁largely	-4138
▁articles	-4139
▁means	-4140
▁reporting	-4141
▁maintenance	-4142
49	-4143
▁injuries	-4144
▁intensive	-4145
otics	-4146
▁recru	-4147
eg	-4148
itone	-4149
▁acce	-4150
ervation	-4151
etric	-4152
▁45	-4153
▁spectrum	-4154
▁microbial	-4155
(2)	-4156
▁reactive	-4157
▁parents	-4158
▁ane	-4159
▁records	-4160
▁certain	-4161
▁paral	-4162
oxy	-4163
ert	-4164
▁platform	-4165
▁oct	-4166
▁pair	-4167
▁lys	-4168
▁tumour	-4169
leuk	-4170
▁kine	-4171
▁pathogen	-4172
▁above	-4173
▁bp	-4174
titud	-4175
▁south	-4176
grade	-4177
▁psychological	-4178
▁reactions	-4179
▁pass	-4180
▁cut	-4181
.7%	-4182
▁affects	-4183
▁correc	-4184
▁viability	-4185
▁produce	-4186
▁chromatography	-4187
▁cataly	-4188
▁ros	-4189
▁pm	-4190
entia	-4191
olip	-4192
4).	-4193
▁families	-4194
▁pac	-4195
omics	-4196
quired	-4197
▁emerging	-4198
▁determination	-4199
▁serious	-4200
▁platelet	-4201
iral	-4202
▁regulated	-4203
▁modeling	-4204
ocation	-4205
▁progressive	-4206
ician	-4207
tious	-4208
▁account	-4209
▁accept	-4210
▁vary	-4211
▁team	-4212
atif	-4213
▁adherence	-4214
zing	-4215
▁metabolites	-4216
▁myc	-4217
ochemistry	-4218
▁cre	-4219
▁throughout	-4220
▁vaccination	-4221
usc	-4222
urys	-4223
▁fibr	-4224
genic	-4225
3%	-4226
▁agreement	-4227
▁arg	-4228
▁sodium	-4229
▁knee	-4230
orn	-4231
▁product	-4232
▁spectroscopy	-4233
▁cam	-4234
aries	-4235
▁weak	-4236
▁controll	-4237
omatic	-4238
▁abnormalities	-4239
22	-4240
mal	-4241
▁emph	-4242
▁location	-4243
▁ty	-4244
▁immunos	-4245
ologists	-4246
▁adequ	-4247
▁endomet	-4248
▁ves	-4249
week	-4250
most	-4251
ners	-4252
habilit	-4253
sens	-4254
36	-4255
▁candidate	-4256
intestinal	-4257
▁poorly	-4258
▁adjust	-4259
▁land	-4260
▁melanoma	-4261
ranial	-4262
▁disability	-4263
▁employed	-4264
ophage	-4265
▁≤	-4266
▁metal	-4267
▁achieve	-4268
▁identifying	-4269
oblast	-4270
▁observational	-4271
▁belie	-4272
uting	-4273
rr	-4274
▁ligand	-4275
▁casp	-4276
ks	-4277
▁homeostasis	-4278
▁limitations	-4279
▁cis	-4280
▁ib	-4281
▁soil	-4282
vasive	-4283
aptic	-4284
▁making	-4285
inine	-4286
=0.00	-4287
ria	-4288
hc	-4289
▁neurode	-4290
▁regulate	-4291
▁until	-4292
▁laser	-4293
▁inser	-4294
gans	-4295
ache	-4296
▁obese	-4297
▁tuberculosis	-4298
ota	-4299
▁personal	-4300
▁department	-4301
▁classified	-4302
▁surge	-4303
angi	-4304
▁resistant	-4305
control	-4306
▁discovery	-4307
▁standardi	-4308
urs	-4309
100	-4310
▁propose	-4311
▁polymerase	-4312
▁initiation	-4313
load	-4314
▁dementia	-4315
▁10.	-4316
▁urine	-4317
ovirus	-4318
▁admission	-4319
▁facilitate	-4320
onin	-4321
▁european	-4322
▁recruited	-4323
▁date	-4324
▁allows	-4325
▁oxide	-4326
vs	-4327
▁oil	-4328
bre	-4329
▁fa	-4330
▁pneumonia	-4331
enchymal	-4332
▁congen	-4333
▁worldwide	-4334
▁adhesion	-4335
▁cytokine	-4336
▁excell	-4337
▁molecule	-4338
▁neurological	-4339
▁cad	-4340
▁ze	-4341
▁amyl	-4342
▁austr	-4343
.6%	-4344
▁occup	-4345
▁make	-4346
▁excess	-4347
abor	-4348
▁healing	-4349
▁reproductive	-4350
▁3,	-4351
▁rhe	-4352
▁analog	-4353
▁integrated	-4354
▁har	-4355
ynthesis	-4356
▁hypoxia	-4357
6%	-4358
▁atrial	-4359
7%	-4360
▁biomarker	-4361
▁satisfaction	-4362
▁stri	-4363
▁necrosis	-4364
▁extracted	-4365
stage	-4366
▁complication	-4367
▁goal	-4368
▁hemorrh	-4369
vis	-4370
▁characteristic	-4371
▁growing	-4372
▁viruses	-4373
▁epig	-4374
▁promotes	-4375
activated	-4376
ying	-4377
oa	-4378
▁norm	-4379
▁nine	-4380
.8%	-4381
9%	-4382
▁near	-4383
▁fractures	-4384
roscopic	-4385
45	-4386
.4%	-4387
▁epis	-4388
▁ure	-4389
▁regulating	-4390
▁methyl	-4391
▁pil	-4392
▁biology	-4393
▁experiences	-4394
▁elements	-4395
4%	-4396
▁rehabilit	-4397
▁(2)	-4398
▁balance	-4399
▁pharmacological	-4400
hal	-4401
akes	-4402
▁morphological	-4403
▁schiz	-4404
▁newly	-4405
▁relevance	-4406
▁pel	-4407
▁egfr	-4408
▁attem	-4409
▁nerv	-4410
▁reliable	-4411
va	-4412
▁proxim	-4413
opa	-4414
ycin	-4415
osp	-4416
▁lapa	-4417
▁another	-4418
▁cys	-4419
▁base	-4420
▁algorithm	-4421
▁fed	-4422
▁chol	-4423
pass	-4424
▁advances	-4425
▁repeated	-4426
▁coord	-4427
ronch	-4428
▁estimates	-4429
.2%	-4430
▁agon	-4431
▁discussion	-4432
▁neu	-4433
▁subun	-4434
vascular	-4435
▁compet	-4436
▁ide	-4437
▁next	-4438
flu	-4439
▁tb	-4440
▁summary	-4441
ifications	-4442
▁circulating	-4443
▁commerc	-4444
ached	-4445
▁resources	-4446
▁assessing	-4447
aces	-4448
▁heterogeneity	-4449
▁histopath	-4450
ban	-4451
▁databases	-4452
prot	-4453
▁au	-4454
▁node	-4455
▁matter	-4456
amic	-4457
▁occurs	-4458
▁mill	-4459
▁put	-4460
▁stabil	-4461
▁discharge	-4462
▁creat	-4463
▁1.5	-4464
▁polymorphism	-4465
▁variant	-4466
adjusted	-4467
▁vul	-4468
▁ker	-4469
46	-4470
▁leukemia	-4471
▁iso	-4472
▁hab	-4473
▁delayed	-4474
▁regulates	-4475
▁electronic	-4476
▁infarction	-4477
▁subset	-4478
▁endogenous	-4479
invasive	-4480
▁suitable	-4481
▁donor	-4482
▁questions	-4483
▁synthetic	-4484
▁multic	-4485
dna	-4486
▁marg	-4487
rog	-4488
ologous	-4489
▁synthesized	-4490
ired	-4491
▁movement	-4492
ophageal	-4493
▁channel	-4494
acer	-4495
▁tgf	-4496
▁atp	-4497
leukin	-4498
part	-4499
▁pathogens	-4500
▁every	-4501
▁affecting	-4502
▁lymphoma	-4503
▁ischemia	-4504
▁minor	-4505
▁32	-4506
ields	-4507
▁heat	-4508
activation	-4509
fered	-4510
▁diameter	-4511
▁autoimmun	-4512
.1%	-4513
▁arthritis	-4514
scale	-4515
▁fron	-4516
▁numbers	-4517
▁basic	-4518
▁stratif	-4519
▁surviv	-4520
astic	-4521
▁gel	-4522
▁retrospectively	-4523
▁mell	-4524
▁located	-4525
ialysis	-4526
▁pharmacokine	-4527
▁seiz	-4528
35	-4529
▁efforts	-4530
▁suppressed	-4531
▁suppression	-4532
▁seas	-4533
▁units	-4534
▁consequences	-4535
▁substit	-4536
▁aneurys	-4537
▁appears	-4538
▁fibro	-4539
▁substantial	-4540
undred	-4541
otypic	-4542
▁residues	-4543
odynamic	-4544
try	-4545
▁vas	-4546
▁coch	-4547
▁connec	-4548
▁traits	-4549
▁31	-4550
▁predominant	-4551
▁highlight	-4552
▁presenting	-4553
▁theory	-4554
▁radical	-4555
▁decline	-4556
▁organic	-4557
▁rehabilitation	-4558
▁caro	-4559
▁mim	-4560
▁excellent	-4561
▁park	-4562
▁conserved	-4563
▁ifn	-4564
▁searc	-4565
▁&	-4566
▁skeletal	-4567
▁devices	-4568
▁bilateral	-4569
teen	-4570
▁bladder	-4571
▁reliability	-4572
▁intravenous	-4573
▁feeding	-4574
▁cb	-4575
igible	-4576
▁atheros	-4577
▁4-	-4578
▁cx	-4579
ocarcinoma	-4580
▁contrac	-4581
▁contribution	-4582
reported	-4583
▁stay	-4584
urine	-4585
▁expand	-4586
▁dogs	-4587
aves	-4588
▁radiotherapy	-4589
▁derivatives	-4590
methyl	-4591
▁90	-4592
▁attenuated	-4593
▁demographic	-4594
▁valve	-4595
▁media	-4596
▁negatively	-4597
face	-4598
▁acceler	-4599
▁regional	-4600
▁modification	-4601
'-	-4602
8%	-4603
▁dm	-4604
0.0	-4605
▁inst	-4606
▁neutroph	-4607
▁effectively	-4608
mark	-4609
auc	-4610
▁biofil	-4611
39	-4612
▁represents	-4613
▁pregnant	-4614
▁prolonged	-4615
▁ben	-4616
▁venous	-4617
▁policy	-4618
▁smo	-4619
eli	-4620
▁hd	-4621
imen	-4622
▁manifest	-4623
▁treating	-4624
ancing	-4625
▁elim	-4626
▁predictor	-4627
▁comput	-4628
▁choice	-4629
▁hpv	-4630
▁acad	-4631
nm	-4632
heimer	-4633
▁plastic	-4634
▁distance	-4635
▁matched	-4636
48	-4637
▁society	-4638
▁milk	-4639
▁md	-4640
▁fluor	-4641
▁nervous	-4642
▁variations	-4643
▁showing	-4644
▁modulation	-4645
▁replacement	-4646
oper	-4647
vity	-4648
anguage	-4649
ises	-4650
▁space	-4651
zheimer	-4652
▁supplementation	-4653
▁enti	-4654
▁neoplas	-4655
.9%	-4656
▁remod	-4657
▁controlling	-4658
▁accompan	-4659
▁signs	-4660
hesia	-4661
▁simulation	-4662
▁interleukin	-4663
▁persistent	-4664
▁skills	-4665
▁preparation	-4666
kd	-4667
▁predicting	-4668
▁validity	-4669
uls	-4670
▁ss	-4671
▁never	-4672
▁requ	-4673
▁ara	-4674
ophren	-4675
clc	-4676
tumor	-4677
▁progress	-4678
47	-4679
▁subsequently	-4680
▁younger	-4681
gluc	-4682
cephal	-4683
▁displayed	-4684
▁corne	-4685
▁eti	-4686
▁cf	-4687
▁serve	-4688
▁rapidly	-4689
▁pg	-4690
▁0.001)	-4691
▁venti	-4692
▁swit	-4693
▁congenital	-4694
actic	-4695
▁tex	-4696
ton	-4697
ocrine	-4698
▁epigene	-4699
▁basal	-4700
▁drink	-4701
ozyg	-4702
psy	-4703
▁mirnas	-4704
3),	-4705
icle	-4706
▁check	-4707
▁socio	-4708
▁alzheimer	-4709
ras	-4710
▁cultured	-4711
65	-4712
▁hundred	-4713
▁detailed	-4714
▁correlations	-4715
▁schizophren	-4716
▁mellitus	-4717
▁anth	-4718
▁knockdown	-4719
▁den	-4720
▁fif	-4721
▁miss	-4722
▁allele	-4723
▁barriers	-4724
▁metastases	-4725
onucle	-4726
ht	-4727
▁optical	-4728
azole	-4729
▁fall	-4730
ontin	-4731
(-1)	-4732
(2	-4733
▁planning	-4734
▁centers	-4735
iii	-4736
illus	-4737
▁almost	-4738
itor	-4739
ware	-4740
▁bran	-4741
▁characterize	-4742
▁december	-4743
▁ple	-4744
▁silic	-4745
▁caspase	-4746
▁immunity	-4747
▁antibiotics	-4748
▁dil	-4749
▁sensory	-4750
▁cardiomy	-4751
▁conjug	-4752
isions	-4753
▁recruit	-4754
▁inhibits	-4755
ba	-4756
lip	-4757
▁airway	-4758
▁marrow	-4759
▁trend	-4760
▁barrier	-4761
ectin	-4762
ensus	-4763
vals	-4764
ni	-4765
▁diff	-4766
▁accoun	-4767
▁opi	-4768
▁stent	-4769
reshold	-4770
mri	-4771
▁turn	-4772
oplasmic	-4773
▁cytotoxicity	-4774
▁explain	-4775
▁formed	-4776
▁assigned	-4777
osine	-4778
▁cortic	-4779
▁mode	-4780
▁numerous	-4781
axis	-4782
▁respect	-4783
▁flav	-4784
▁diffusion	-4785
water	-4786
▁prem	-4787
▁2012	-4788
▁extreme	-4789
▁emotional	-4790
▁implantation	-4791
▁ubiqu	-4792
▁6-	-4793
▁acquired	-4794
cribed	-4795
▁endoscopic	-4796
▁offer	-4797
▁reverse	-4798
▁utility	-4799
▁bow	-4800
▁workers	-4801
cg	-4802
▁motion	-4803
▁exclud	-4804
▁others	-4805
ione	-4806
▁insight	-4807
▁infectious	-4808
▁sampling	-4809
▁challenging	-4810
▁cul	-4811
▁indicates	-4812
lets	-4813
▁pathophys	-4814
▁native	-4815
ger	-4816
▁communities	-4817
▁modul	-4818
▁expans	-4819
▁sustained	-4820
▁interviews	-4821
▁reduces	-4822
▁irradi	-4823
▁channels	-4824
olds	-4825
▁infil	-4826
▁lc	-4827
acting	-4828
▁evaluating	-4829
▁staff	-4830
clusive	-4831
▁distal	-4832
▁39	-4833
▁la	-4834
):	-4835
▁schizophrenia	-4836
▁95	-4837
ulum	-4838
▁economic	-4839
▁clinicians	-4840
▁run	-4841
▁collection	-4842
terminal	-4843
▁providers	-4844
▁lps	-4845
▁stimuli	-4846
▁beta	-4847
▁circum	-4848
▁braz	-4849
wise	-4850
itoneal	-4851
idal	-4852
▁trends	-4853
▁interfer	-4854
1;	-4855
▁malaria	-4856
oglobin	-4857
▁improvements	-4858
used	-4859
▁users	-4860
▁layer	-4861
▁adop	-4862
▁attitud	-4863
▁face	-4864
▁arm	-4865
▁gut	-4866
▁tax	-4867
▁counter	-4868
▁ethn	-4869
▁tit	-4870
kin	-4871
tp	-4872
▁hcv	-4873
▁varied	-4874
▁contributes	-4875
target	-4876
▁extended	-4877
▁phenotypes	-4878
enes	-4879
▁rural	-4880
rant	-4881
▁localization	-4882
ensis	-4883
▁descrip	-4884
▁hydrox	-4885
▁phenomen	-4886
▁bound	-4887
▁options	-4888
▁depressive	-4889
▁none	-4890
▁influenced	-4891
▁primarily	-4892
▁neutral	-4893
▁stor	-4894
▁receive	-4895
-17	-4896
▁particles	-4897
anth	-4898
▁leg	-4899
arcoma	-4900
▁pathogenic	-4901
▁thorac	-4902
▁fluorescent	-4903
psis	-4904
▁live	-4905
▁benign	-4906
▁subt	-4907
▁favor	-4908
▁issue	-4909
▁ln	-4910
▁musc	-4911
▁wr	-4912
urance	-4913
▁meet	-4914
ister	-4915
enter	-4916
ump	-4917
▁tlr	-4918
▁catheter	-4919
-/	-4920
▁mothers	-4921
▁2010	-4922
▁deletion	-4923
icin	-4924
▁acqu	-4925
▁methodology	-4926
▁thereby	-4927
ires	-4928
psych	-4929
▁bronch	-4930
▁tre	-4931
▁vag	-4932
▁earl	-4933
▁regular	-4934
▁verte	-4935
▁transf	-4936
▁correct	-4937
▁hazard	-4938
▁feasibility	-4939
drug	-4940
ev	-4941
▁deaths	-4942
▁shape	-4943
▁intermediate	-4944
▁science	-4945
▁regeneration	-4946
▁usually	-4947
incip	-4948
▁limb	-4949
▁scientif	-4950
hydroxy	-4951
▁intervals	-4952
▁nutrition	-4953
anti	-4954
▁functioning	-4955
▁65	-4956
▁brazil	-4957
usal	-4958
▁affinity	-4959
▁ye	-4960
ariable	-4961
▁igg	-4962
ocl	-4963
▁residents	-4964
inson	-4965
▁utilization	-4966
▁careg	-4967
▁language	-4968
ubation	-4969
hy	-4970
iform	-4971
▁xen	-4972
lo	-4973
bac	-4974
onas	-4975
ystem	-4976
aceu	-4977
▁comorbid	-4978
eryth	-4979
▁quantification	-4980
protein	-4981
▁mmp	-4982
▁vein	-4983
izations	-4984
zation	-4985
exp	-4986
▁spread	-4987
tingu	-4988
▁perspective	-4989
jection	-4990
▁cultures	-4991
▁amyloid	-4992
▁aure	-4993
issions	-4994
hing	-4995
▁sufficient	-4996
dep	-4997
▁urban	-4998
ibly	-4999
▁upd	-5000
▁ranged	-5001
▁conver	-5002
▁gold	-5003
▁py	-5004
▁dend	-5005
▁demonstrates	-5006
iring	-5007
▁researc	-5008
▁maintain	-5009
▁nucleotide	-5010
omat	-5011
▁clar	-5012
▁pp	-5013
rf	-5014
▁alpha	-5015
▁uter	-5016
▁nov	-5017
▁psychiatric	-5018
▁50%	-5019
▁assist	-5020
▁(10	-5021
linked	-5022
▁minimal	-5023
▁rheum	-5024
67	-5025
ka	-5026
▁clim	-5027
▁uv	-5028
here	-5029
44	-5030
▁fal	-5031
▁composite	-5032
▁hen	-5033
▁hydroph	-5034
▁african	-5035
ichia	-5036
▁increasingly	-5037
ypt	-5038
life	-5039
▁actin	-5040
mir	-5041
▁paralle	-5042
lam	-5043
amous	-5044
rd	-5045
▁walk	-5046
▁war	-5047
lium	-5048
▁adaptive	-5049
▁standardized	-5050
▁height	-5051
▁ads	-5052
▁perception	-5053
3.	-5054
▁distingu	-5055
ospital	-5056
▁herein	-5057
▁sepsis	-5058
▁thirty	-5059
▁minutes	-5060
enia	-5061
dyl	-5062
▁neuropath	-5063
▁implicated	-5064
▁perme	-5065
▁bowel	-5066
▁preterm	-5067
hl	-5068
▁mirna	-5069
▁lar	-5070
▁availability	-5071
▁autoimmune	-5072
▁scientific	-5073
▁polar	-5074
▁epigenetic	-5075
▁hydrogen	-5076
▁guide	-5077
▁mammalian	-5078
▁feedback	-5079
▁membran	-5080
▁aureus	-5081
hg	-5082
phys	-5083
hospital	-5084
▁hair	-5085
tri	-5086
▁devi	-5087
▁transient	-5088
▁adjuvant	-5089
arin	-5090
cytes	-5091
hyp	-5092
insic	-5093
▁break	-5094
▁threshold	-5095
▁error	-5096
▁ori	-5097
oscopy	-5098
▁δ	-5099
ogly	-5100
▁collabor	-5101
alling	-5102
▁deficits	-5103
gi	-5104
▁amb	-5105
▁improves	-5106
▁reason	-5107
▁professional	-5108
fts	-5109
▁genotypes	-5110
▁chromosome	-5111
▁cu	-5112
▁sensor	-5113
▁tel	-5114
une	-5115
▁-1	-5116
ermal	-5117
▁green	-5118
▁typical	-5119
▁software	-5120
▁suic	-5121
▁assembly	-5122
▁professionals	-5123
▁sten	-5124
2;	-5125
oside	-5126
▁sac	-5127
▁shock	-5128
▁vector	-5129
▁follic	-5130
tox	-5131
yc	-5132
tention	-5133
▁whose	-5134
▁leaf	-5135
generative	-5136
enic	-5137
▁hearing	-5138
▁insuff	-5139
rophy	-5140
eds	-5141
▁expansion	-5142
▁libr	-5143
▁copd	-5144
platin	-5145
mes	-5146
▁observation	-5147
▁ablation	-5148
chron	-5149
change	-5150
▁illustr	-5151
▁supported	-5152
rief	-5153
▁tail	-5154
▁bon	-5155
▁phylogenetic	-5156
▁sta	-5157
▁dominant	-5158
▁nucleus	-5159
▁interestingly	-5160
tc	-5161
▁online	-5162
▁eb	-5163
▁shorter	-5164
▁differentially	-5165
▁foot	-5166
▁presents	-5167
ifying	-5168
test	-5169
itory	-5170
▁infant	-5171
▁parkinson	-5172
01)	-5173
▁though	-5174
▁adaptation	-5175
▁lv	-5176
▁possess	-5177
▁sought	-5178
▁epilepsy	-5179
▁pf	-5180
uf	-5181
ming	-5182
arent	-5183
▁parad	-5184
▁obtain	-5185
cor	-5186
6).	-5187
ferase	-5188
▁coverage	-5189
▁recognized	-5190
▁smaller	-5191
▁measuring	-5192
▁extra	-5193
accharide	-5194
▁princip	-5195
▁regulator	-5196
empor	-5197
▁adipose	-5198
▁arrest	-5199
▁integration	-5200
▁noted	-5201
▁adenocarcinoma	-5202
▁repeat	-5203
▁bac	-5204
▁consensus	-5205
▁apparent	-5206
atig	-5207
ank	-5208
otor	-5209
▁simulations	-5210
].	-5211
▁vel	-5212
containing	-5213
itant	-5214
(2+)	-5215
▁pilot	-5216
▁grad	-5217
ocellular	-5218
ifer	-5219
▁fab	-5220
▁black	-5221
▁hypothesized	-5222
▁prophyl	-5223
▁considering	-5224
▁encoding	-5225
ana	-5226
▁%)	-5227
▁70	-5228
▁art	-5229
▁storage	-5230
▁house	-5231
▁organs	-5232
▁mutants	-5233
▁lik	-5234
nps	-5235
▁symptomatic	-5236
▁hg	-5237
avage	-5238
ash	-5239
▁mesenchymal	-5240
▁prevalent	-5241
osal	-5242
▁example	-5243
▁medications	-5244
▁echocardi	-5245
▁track	-5246
▁80	-5247
▁mineral	-5248
▁innate	-5249
▁cum	-5250
▁observations	-5251
ads	-5252
▁1.7	-5253
pet	-5254
urally	-5255
▁cytos	-5256
lc	-5257
▁slight	-5258
▁reveals	-5259
▁reviews	-5260
▁murine	-5261
▁vac	-5262
ament	-5263
▁valuable	-5264
ict	-5265
▁uro	-5266
▁taking	-5267
▁°	-5268
ceptions	-5269
▁generate	-5270
▁closely	-5271
▁operation	-5272
ptic	-5273
abilities	-5274
▁datas	-5275
98	-5276
▁preferen	-5277
▁thermal	-5278
oked	-5279
oplast	-5280
▁dex	-5281
odon	-5282
rectomy	-5283
▁gover	-5284
ertain	-5285
▁decreases	-5286
mented	-5287
areness	-5288
atigue	-5289
▁bul	-5290
ellar	-5291
plasia	-5292
▁abundance	-5293
▁aspir	-5294
▁resource	-5295
ducing	-5296
▁operating	-5297
▁pit	-5298
▁shift	-5299
▁academic	-5300
yond	-5301
▁except	-5302
▁oxidation	-5303
▁47	-5304
▁0.05)	-5305
6-	-5306
▁2011	-5307
▁progen	-5308
oag	-5309
▁adequate	-5310
▁theore	-5311
▁virul	-5312
▁2009	-5313
omical	-5314
ows	-5315
▁option	-5316
▁residual	-5317
▁once	-5318
▁squamous	-5319
▁inhibiting	-5320
▁deple	-5321
▁caps	-5322
▁uncertain	-5323
▁retur	-5324
geal	-5325
▁ly	-5326
roblasts	-5327
▁registry	-5328
▁acquis	-5329
▁tun	-5330
▁eryth	-5331
▁pall	-5332
▁probability	-5333
▁precise	-5334
▁delay	-5335
▁mapping	-5336
▁42	-5337
▁partially	-5338
▁enhancement	-5339
▁beyond	-5340
▁downstream	-5341
▁lowest	-5342
arth	-5343
▁cry	-5344
osterone	-5345
tra	-5346
heal	-5347
aim	-5348
▁promoting	-5349
▁poll	-5350
▁nutritional	-5351
▁participation	-5352
▁feature	-5353
▁conclude	-5354
▁tyros	-5355
ecal	-5356
blast	-5357
▁ren	-5358
▁searched	-5359
▁visits	-5360
▁dors	-5361
▁upregulated	-5362
4),	-5363
▁2.5	-5364
▁periods	-5365
▁protocols	-5366
▁infusion	-5367
▁terti	-5368
▁randomised	-5369
atus	-5370
95%	-5371
iciently	-5372
ulative	-5373
tively	-5374
▁fore	-5375
▁biosynthesis	-5376
dg	-5377
▁proximal	-5378
▁err	-5379
dh	-5380
▁physician	-5381
herichia	-5382
▁survivors	-5383
▁color	-5384
tw	-5385
idae	-5386
▁carotid	-5387
▁educational	-5388
oman	-5389
▁axis	-5390
▁indirect	-5391
▁sclerosis	-5392
inning	-5393
▁gc	-5394
▁lob	-5395
▁coupled	-5396
aryngeal	-5397
flow	-5398
68	-5399
coun	-5400
▁histone	-5401
▁signalling	-5402
▁coefficient	-5403
▁admitted	-5404
▁saliv	-5405
▁mach	-5406
▁allowed	-5407
▁expect	-5408
▁diver	-5409
▁72	-5410
▁entire	-5411
▁adjustment	-5412
▁cytotoxic	-5413
carb	-5414
▁persons	-5415
▁eligible	-5416
odds	-5417
▁competi	-5418
▁accompanied	-5419
▁concerns	-5420
▁az	-5421
▁registration	-5422
oxyl	-5423
sub	-5424
▁probe	-5425
▁fatigue	-5426
▁yeast	-5427
▁translation	-5428
▁hepatocellular	-5429
tub	-5430
bd	-5431
▁cc	-5432
▁organisms	-5433
▁laparoscopic	-5434
tual	-5435
▁promoted	-5436
▁offs	-5437
▁sat	-5438
▁indicators	-5439
31	-5440
▁anticancer	-5441
▁adip	-5442
▁inverse	-5443
▁awareness	-5444
▁typically	-5445
▁phyt	-5446
▁ba	-5447
▁wnt	-5448
▁fungal	-5449
▁akt	-5450
▁remodeling	-5451
▁strom	-5452
▁isolation	-5453
▁computational	-5454
▁engineering	-5455
illation	-5456
▁gh	-5457
▁manip	-5458
▁modifications	-5459
▁strept	-5460
▁2017	-5461
▁decl	-5462
▁absorption	-5463
▁aggressive	-5464
▁unex	-5465
▁below	-5466
▁seems	-5467
▁belong	-5468
▁astro	-5469
▁escherichia	-5470
▁describes	-5471
▁multivariable	-5472
alities	-5473
▁orient	-5474
▁precurs	-5475
▁parallel	-5476
ril	-5477
▁amp	-5478
▁tobac	-5479
▁includes	-5480
▁environments	-5481
▁earlier	-5482
▁tobacco	-5483
olute	-5484
virus	-5485
inol	-5486
▁disturb	-5487
▁evolutionary	-5488
.00	-5489
▁plasm	-5490
▁aber	-5491
▁importantly	-5492
-18	-5493
lap	-5494
▁thi	-5495
iness	-5496
oon	-5497
▁elic	-5498
▁membranes	-5499
▁vegf	-5500
▁waste	-5501
.)	-5502
▁scanning	-5503
▁prescri	-5504
ches	-5505
stim	-5506
▁cyst	-5507
▁gram	-5508
▁55	-5509
▁sr	-5510
▁occurring	-5511
▁44	-5512
ivalent	-5513
▁vaccines	-5514
▁gi	-5515
▁depending	-5516
▁75	-5517
▁categories	-5518
▁maintained	-5519
▁constant	-5520
▁practical	-5521
cles	-5522
▁north	-5523
▁nitrogen	-5524
▁suspected	-5525
▁display	-5526
▁completely	-5527
▁motif	-5528
.0%	-5529
▁pv	-5530
▁gir	-5531
break	-5532
▁microbiota	-5533
▁lacking	-5534
opor	-5535
▁mechanistic	-5536
▁albumin	-5537
▁concom	-5538
▁done	-5539
ilateral	-5540
▁simultaneously	-5541
▁extracts	-5542
-2-	-5543
ury	-5544
▁gon	-5545
itect	-5546
▁©	-5547
▁amel	-5548
▁rational	-5549
▁enab	-5550
▁aa	-5551
▁subject	-5552
▁recruitment	-5553
oidal	-5554
▁gestational	-5555
▁influences	-5556
▁syst	-5557
olytic	-5558
▁project	-5559
▁crc	-5560
iveness	-5561
otomy	-5562
▁nasal	-5563
▁46	-5564
▁prefer	-5565
▁commercial	-5566
▁determin	-5567
▁hospitalization	-5568
▁appe	-5569
anine	-5570
▁annual	-5571
li	-5572
▁applic	-5573
▁remark	-5574
▁concomitant	-5575
▁items	-5576
▁viol	-5577
▁investigations	-5578
▁antiv	-5579
▁corneal	-5580
▁cartil	-5581
▁steps	-5582
▁determining	-5583
▁innov	-5584
▁subjected	-5585
▁acquisition	-5586
▁implemented	-5587
▁markedly	-5588
xin	-5589
▁transfusion	-5590
▁documented	-5591
-12	-5592
▁rot	-5593
environ	-5594
▁relapse	-5595
▁explor	-5596
97	-5597
▁possibility	-5598
osens	-5599
▁43	-5600
▁mostly	-5601
▁researchers	-5602
renal	-5603
▁retention	-5604
▁worse	-5605
▁rating	-5606
▁deb	-5607
▁computer	-5608
▁supporting	-5609
▁chest	-5610
▁lum	-5611
▁pubmed	-5612
▁hence	-5613
▁version	-5614
▁chromatin	-5615
▁mitochondria	-5616
▁putative	-5617
ws	-5618
car	-5619
▁alkal	-5620
▁angiogenesis	-5621
factory	-5622
▁chick	-5623
eptide	-5624
eled	-5625
▁embryonic	-5626
▁wave	-5627
▁distress	-5628
▁carry	-5629
▁angle	-5630
▁technologies	-5631
▁kore	-5632
▁metall	-5633
▁speed	-5634
▁panel	-5635
▁1.8	-5636
tm	-5637
▁buil	-5638
▁heterogeneous	-5639
▁pren	-5640
▁ect	-5641
▁bat	-5642
enin	-5643
atum	-5644
▁screened	-5645
▁fever	-5646
▁synaptic	-5647
economic	-5648
izumab	-5649
ocytic	-5650
▁causing	-5651
▁percutaneous	-5652
col	-5653
▁gal	-5654
▁synerg	-5655
abs	-5656
▁stenosis	-5657
▁interpretation	-5658
▁cro	-5659
aba	-5660
coding	-5661
▁ult	-5662
▁isoform	-5663
▁intraoperative	-5664
oded	-5665
▁0.2	-5666
▁beg	-5667
▁dy	-5668
iance	-5669
▁connectivity	-5670
▁hippocampal	-5671
▁emerged	-5672
▁introduced	-5673
riched	-5674
▁vide	-5675
igm	-5676
ptomatic	-5677
▁substrates	-5678
▁salt	-5679
▁assessments	-5680
acerb	-5681
▁hemorrhage	-5682
▁outbreak	-5683
▁failed	-5684
▁original	-5685
▁utilized	-5686
▁tertiary	-5687
assisted	-5688
▁cycles	-5689
▁fewer	-5690
▁systolic	-5691
▁decades	-5692
▁diges	-5693
▁phenotypic	-5694
5%)	-5695
▁preventing	-5696
75	-5697
▁ranging	-5698
plate	-5699
--	-5700
▁undergo	-5701
▁decisions	-5702
ivariate	-5703
▁analges	-5704
▁restor	-5705
▁retrie	-5706
▁wid	-5707
achment	-5708
0)	-5709
rium	-5710
▁maturation	-5711
3;	-5712
uria	-5713
▁prin	-5714
unction	-5715
perfusion	-5716
dp	-5717
▁unf	-5718
▁perfusion	-5719
▁reflect	-5720
▁kill	-5721
▁brief	-5722
ocytosis	-5723
▁overview	-5724
▁synth	-5725
▁cytometry	-5726
▁soluble	-5727
▁periodon	-5728
▁transgenic	-5729
▁cutaneous	-5730
▁gap	-5731
▁ank	-5732
▁vulner	-5733
▁ethanol	-5734
▁expressions	-5735
stand	-5736
▁element	-5737
▁conversion	-5738
▁facial	-5739
lf	-5740
▁bin	-5741
-1-	-5742
queous	-5743
▁reasons	-5744
▁bcl	-5745
▁web	-5746
▁emission	-5747
ols	-5748
atase	-5749
▁prelim	-5750
enari	-5751
▁γ	-5752
▁retro	-5753
▁pooled	-5754
▁hla	-5755
▁fibroblasts	-5756
▁considerable	-5757
▁loci	-5758
▁pharmaceu	-5759
▁profiling	-5760
ways	-5761
▁cumulative	-5762
▁subtypes	-5763
▁sept	-5764
hyd	-5765
opsis	-5766
▁histor	-5767
hold	-5768
▁implants	-5769
▁staphyl	-5770
▁biofilm	-5771
▁exacerb	-5772
▁veter	-5773
-15	-5774
▁draw	-5775
▁gradi	-5776
syn	-5777
▁thought	-5778
▁impacts	-5779
▁lipoprotein	-5780
▁motiv	-5781
▁traumatic	-5782
▁variance	-5783
phase	-5784
▁highlights	-5785
▁tasks	-5786
▁mi	-5787
▁veget	-5788
max	-5789
▁2014.	-5790
men	-5791
aine	-5792
otin	-5793
truct	-5794
mo	-5795
sup	-5796
▁bov	-5797
▁complexity	-5798
▁2.0	-5799
▁49	-5800
▁solutions	-5801
▁clearance	-5802
through	-5803
sw	-5804
▁attitudes	-5805
-2,	-5806
ivered	-5807
▁dispers	-5808
▁anticoag	-5809
usting	-5810
▁japanese	-5811
▁minimum	-5812
▁german	-5813
▁elis	-5814
▁recipients	-5815
▁fresh	-5816
▁similarly	-5817
▁cas	-5818
▁ongoing	-5819
unte	-5820
▁remaining	-5821
▁separation	-5822
▁possibly	-5823
▁rheumat	-5824
▁catalytic	-5825
arged	-5826
▁consisted	-5827
▁africa	-5828
ritic	-5829
▁absolute	-5830
▁rice	-5831
▁trim	-5832
▁name	-5833
elihood	-5834
fc	-5835
iment	-5836
▁1.6	-5837
olecular	-5838
▁atherosclerosis	-5839
ude	-5840
▁0.001),	-5841
▁integrity	-5842
▁ocular	-5843
▁ju	-5844
▁volunte	-5845
▁cartilage	-5846
▁requiring	-5847
▁wt	-5848
▁cit	-5849
▁56	-5850
gent	-5851
▁zinc	-5852
▁asc	-5853
mc	-5854
▁errors	-5855
arities	-5856
years	-5857
▁move	-5858
▁threat	-5859
▁youth	-5860
▁rod	-5861
opathic	-5862
▁gland	-5863
▁confound	-5864
▁attrac	-5865
▁seem	-5866
▁aqueous	-5867
▁feasible	-5868
▁antagonist	-5869
qol	-5870
▁esophageal	-5871
▁scar	-5872
wa	-5873
▁placement	-5874
▁bd	-5875
▁cultiv	-5876
▁aggregation	-5877
▁overweight	-5878
▁fiber	-5879
▁sho	-5880
▁added	-5881
essions	-5882
▁anesthesia	-5883
▁stiff	-5884
cha	-5885
otal	-5886
▁fixed	-5887
omycin	-5888
uz	-5889
▁subunit	-5890
▁whom	-5891
ada	-5892
▁coc	-5893
anted	-5894
▁immediate	-5895
king	-5896
illin	-5897
rep	-5898
▁pack	-5899
▁sinus	-5900
▁scenari	-5901
▁phosphate	-5902
▁sets	-5903
▁capable	-5904
▁fixation	-5905
▁58	-5906
icking	-5907
▁participated	-5908
▁autom	-5909
▁referred	-5910
▁constructed	-5911
discipl	-5912
])	-5913
▁involves	-5914
▁cannot	-5915
▁attemp	-5916
▁adolescent	-5917
▁instrument	-5918
▁cochrane	-5919
▁estimation	-5920
acted	-5921
median	-5922
▁cohorts	-5923
▁quantified	-5924
steine	-5925
▁concurrent	-5926
▁partners	-5927
meth	-5928
pat	-5929
▁transformation	-5930
▁correlates	-5931
uth	-5932
▁decreasing	-5933
▁psori	-5934
amate	-5935
▁incom	-5936
▁lumb	-5937
▁newbor	-5938
oct	-5939
▁respondents	-5940
nk	-5941
▁hydrog	-5942
9).	-5943
▁lifest	-5944
▁perceptions	-5945
ietic	-5946
▁lt	-5947
▁fox	-5948
4;	-5949
▁surfaces	-5950
▁genus	-5951
▁hapl	-5952
▁femoral	-5953
33	-5954
▁enzymatic	-5955
▁limits	-5956
▁lept	-5957
fp	-5958
▁macrophage	-5959
▁define	-5960
▁particle	-5961
▁epidemiological	-5962
▁shared	-5963
▁ligands	-5964
▁occlusion	-5965
▁technical	-5966
ograft	-5967
▁arti	-5968
▁drinking	-5969
▁malignancy	-5970
=1	-5971
▁los	-5972
▁preliminary	-5973
▁tyrosine	-5974
▁obstructive	-5975
acent	-5976
elled	-5977
▁intrinsic	-5978
▁analytical	-5979
▁amelior	-5980
▁likelihood	-5981
▁hyd	-5982
42	-5983
▁theoretical	-5984
▁uk	-5985
▁obst	-5986
▁loading	-5987
▁ages	-5988
ozygous	-5989
▁substance	-5990
▁57	-5991
▁sout	-5992
▁overc	-5993
inger	-5994
▁actions	-5995
▁irradiation	-5996
▁colle	-5997
cemia	-5998
▁hippocampus	-5999
▁(3)	-6000
▁practition	-6001
mut	-6002
▁concern	-6003
enh	-6004
▁virulence	-6005
▁retin	-6006
▁41	-6007
▁degeneration	-6008
▁frequencies	-6009
disciplinary	-6010
▁expressing	-6011
▁array	-6012
8).	-6013
▁clearly	-6014
▁opioid	-6015
▁controvers	-6016
▁thrombosis	-6017
▁nk	-6018
deficient	-6019
▁asymptomatic	-6020
95	-6021
▁combining	-6022
▁1)	-6023
guided	-6024
ica	-6025
▁habit	-6026
▁spine	-6027
amental	-6028
▁assum	-6029
▁2)	-6030
vit	-6031
▁myeloid	-6032
▁initially	-6033
ophy	-6034
▁clusters	-6035
cu	-6036
▁depth	-6037
▁determinants	-6038
▁10-	-6039
plan	-6040
state	-6041
▁kinetics	-6042
▁explained	-6043
▁distributed	-6044
mol	-6045
ef	-6046
vation	-6047
▁adjusting	-6048
▁ulcer	-6049
▁aid	-6050
▁dox	-6051
▁hbv	-6052
▁immunosup	-6053
cb	-6054
▁regardless	-6055
7).	-6056
▁advantage	-6057
▁regimen	-6058
▁hematopo	-6059
▁0.1	-6060
▁died	-6061
▁angiography	-6062
▁architect	-6063
▁uc	-6064
▁changed	-6065
▁hsp	-6066
▁pelvic	-6067
▁magnitude	-6068
▁screen	-6069
▁cirrh	-6070
ders	-6071
▁surgeons	-6072
▁pk	-6073
nit	-6074
▁noise	-6075
▁estrogen	-6076
▁maintaining	-6077
ocity	-6078
▁fibrillation	-6079
▁defect	-6080
otrans	-6081
dial	-6082
▁appeared	-6083
▁nodes	-6084
ohyd	-6085
▁synthase	-6086
ked	-6087
omonas	-6088
▁exer	-6089
▁nitric	-6090
dered	-6091
4.	-6092
pring	-6093
▁localized	-6094
hf	-6095
▁fundamental	-6096
▁rac	-6097
▁thrombo	-6098
▁vessels	-6099
▁max	-6100
mscs	-6101
cts	-6102
▁2008	-6103
ley	-6104
▁pretreatment	-6105
▁overlap	-6106
▁anatomical	-6107
▁remission	-6108
▁elisa	-6109
▁opportunities	-6110
▁2.1	-6111
▁forty	-6112
▁enable	-6113
▁comparisons	-6114
▁cn	-6115
▁exchange	-6116
athione	-6117
▁surround	-6118
▁fruit	-6119
▁68	-6120
▁apoptotic	-6121
▁timing	-6122
▁indices	-6123
/6	-6124
tb	-6125
▁hol	-6126
▁advantages	-6127
mb	-6128
▁upregulation	-6129
▁optimized	-6130
▁favorable	-6131
▁4,	-6132
osan	-6133
ensin	-6134
atics	-6135
catenin	-6136
▁identi	-6137
▁carriers	-6138
32	-6139
▁delivered	-6140
acetyl	-6141
▁ions	-6142
▁hypoth	-6143
▁quantify	-6144
▁modulate	-6145
▁[95%	-6146
ogram	-6147
icles	-6148
▁take	-6149
▁tube	-6150
▁comorbidities	-6151
▁outs	-6152
▁silencing	-6153
▁incident	-6154
▁microrna	-6155
▁abuse	-6156
▁fill	-6157
▁tele	-6158
ester	-6159
▁vessel	-6160
▁benz	-6161
▁polys	-6162
ote	-6163
▁nmr	-6164
▁austral	-6165
▁plasticity	-6166
acterial	-6167
▁deposition	-6168
▁dry	-6169
▁donors	-6170
▁cold	-6171
▁encoun	-6172
▁bis	-6173
▁preclinical	-6174
▁semi	-6175
obil	-6176
-3-	-6177
▁52	-6178
▁gs	-6179
▁stere	-6180
osystem	-6181
ato	-6182
▁span	-6183
▁embryos	-6184
▁seek	-6185
▁hypertroph	-6186
-,	-6187
▁enhances	-6188
▁ventilation	-6189
mediately	-6190
rhyth	-6191
nd	-6192
lux	-6193
▁million	-6194
dri	-6195
avy	-6196
▁ground	-6197
▁ka	-6198
▁zeb	-6199
pread	-6200
▁snps	-6201
▁perioperative	-6202
iotic	-6203
▁spp	-6204
▁rnas	-6205
▁cisplatin	-6206
▁glycos	-6207
▁nurse	-6208
▁questionnaires	-6209
▁detecting	-6210
▁leaves	-6211
▁reached	-6212
▁created	-6213
▁thoracic	-6214
▁dram	-6215
▁igf	-6216
▁tib	-6217
▁descriptive	-6218
angl	-6219
▁outpatient	-6220
gc	-6221
rected	-6222
rp	-6223
cine	-6224
▁operative	-6225
▁library	-6226
▁insertion	-6227
oic	-6228
▁optimization	-6229
▁empir	-6230
▁prospectively	-6231
tl	-6232
▁disruption	-6233
▁chond	-6234
▁simulated	-6235
▁teaching	-6236
▁stimulated	-6237
▁deform	-6238
▁tm	-6239
▁supports	-6240
▁genotyp	-6241
being	-6242
▁varying	-6243
▁muscles	-6244
▁dehydro	-6245
hyde	-6246
pens	-6247
etin	-6248
▁parental	-6249
▁conflic	-6250
▁decom	-6251
▁candidates	-6252
▁genomes	-6253
rad	-6254
rophic	-6255
▁nearly	-6256
▁pert	-6257
▁bot	-6258
▁mature	-6259
▁osteo	-6260
▁immediately	-6261
▁amplification	-6262
▁2015.	-6263
▁auditory	-6264
obacterium	-6265
urity	-6266
akt	-6267
dehyde	-6268
▁ensure	-6269
▁dissection	-6270
▁antiviral	-6271
▁subcutaneous	-6272
▁pb	-6273
▁velocity	-6274
▁depletion	-6275
acin	-6276
uly	-6277
▁prevented	-6278
matched	-6279
otropic	-6280
▁embol	-6281
▁ckd	-6282
functional	-6283
lication	-6284
can	-6285
▁enrich	-6286
96	-6287
▁port	-6288
aceae	-6289
▁gp	-6290
wt	-6291
▁lifestyle	-6292
▁digital	-6293
▁registered	-6294
xa	-6295
▁offspring	-6296
▁pairs	-6297
▁psychos	-6298
▁bypass	-6299
nia	-6300
▁dramatic	-6301
but	-6302
▁woman	-6303
▁recording	-6304
▁elucidate	-6305
igare	-6306
▁composed	-6307
▁microar	-6308
chemical	-6309
▁(18	-6310
▁climate	-6311
▁medial	-6312
▁glomer	-6313
ives	-6314
▁advance	-6315
▁formulation	-6316
idin	-6317
▁erk	-6318
▁subjective	-6319
selec	-6320
oline	-6321
▁distinguish	-6322
▁fitness	-6323
▁gy	-6324
▁diagnoses	-6325
▁ds	-6326
▁ath	-6327
▁salmon	-6328
▁room	-6329
▁eating	-6330
glut	-6331
▁separate	-6332
▁interface	-6333
▁dup	-6334
▁occupational	-6335
▁visit	-6336
▁mening	-6337
▁epidemiology	-6338
▁traff	-6339
▁glutathione	-6340
▁hemoglobin	-6341
▁embase	-6342
▁concerning	-6343
▁critically	-6344
▁own	-6345
▁saline	-6346
▁nsclc	-6347
missions	-6348
▁0.01).	-6349
43	-6350
▁member	-6351
▁np	-6352
▁asymmet	-6353
▁dopamine	-6354
oflu	-6355
▁june	-6356
▁agonist	-6357
▁parasite	-6358
idespread	-6359
amination	-6360
environment	-6361
▁sizes	-6362
▁list	-6363
▁palli	-6364
▁widespread	-6365
uity	-6366
▁nation	-6367
▁vital	-6368
▁contained	-6369
nea	-6370
▁(12	-6371
ayer	-6372
▁malignancies	-6373
▁penet	-6374
▁vaginal	-6375
osed	-6376
▁$	-6377
▁guidance	-6378
class	-6379
▁mos	-6380
▁placed	-6381
▁extremely	-6382
controlled	-6383
onset	-6384
ested	-6385
utional	-6386
5;	-6387
▁lipids	-6388
▁precision	-6389
ordance	-6390
▁student	-6391
▁fabric	-6392
▁race	-6393
▁ring	-6394
▁pyr	-6395
▁amoun	-6396
±0.	-6397
holds	-6398
▁nps	-6399
▁parent	-6400
▁etiology	-6401
▁2013.	-6402
cope	-6403
▁offers	-6404
▁mess	-6405
▁prenatal	-6406
phosphate	-6407
▁excluded	-6408
acr	-6409
▁intact	-6410
▁breat	-6411
▁correction	-6412
▁enhancing	-6413
▁consult	-6414
▁54	-6415
iction	-6416
lin	-6417
▁2.2	-6418
▁predominantly	-6419
▁encephal	-6420
▁counts	-6421
▁allowing	-6422
▁heavy	-6423
ready	-6424
ascul	-6425
oblastoma	-6426
▁attributed	-6427
▁scaffolds	-6428
▁combinations	-6429
▁bind	-6430
▁scales	-6431
▁sustain	-6432
▁parameter	-6433
▁requirements	-6434
▁smooth	-6435
▁veh	-6436
▁depends	-6437
hea	-6438
▁rup	-6439
5.	-6440
▁transcripts	-6441
hb	-6442
▁modern	-6443
▁dissem	-6444
▁inferior	-6445
▁67	-6446
cause	-6447
56	-6448
poses	-6449
▁granul	-6450
ophosph	-6451
▁neutrophil	-6452
/2	-6453
qr	-6454
-200	-6455
▁(>	-6456
high	-6457
▁arteries	-6458
▁ham	-6459
▁sessions	-6460
▁abundant	-6461
▁warr	-6462
▁interact	-6463
▁slightly	-6464
titis	-6465
▁30-	-6466
▁transporter	-6467
fo	-6468
ophila	-6469
▁focal	-6470
▁adjacent	-6471
two	-6472
▁differentiated	-6473
iasis	-6474
▁continued	-6475
▁segment	-6476
cad	-6477
▁representative	-6478
▁artificial	-6479
▁monitored	-6480
▁stiffness	-6481
▁scaffold	-6482
.5%)	-6483
▁100%	-6484
▁discrimination	-6485
omers	-6486
▁12-	-6487
cycl	-6488
▁instru	-6489
▁interferon	-6490
▁sor	-6491
▁pathophysiology	-6492
nel	-6493
▁subgroups	-6494
▁regimens	-6495
▁subtype	-6496
▁vic	-6497
▁bovine	-6498
▁atyp	-6499
▁differed	-6500
▁rhyth	-6501
▁consisting	-6502
▁rabb	-6503
▁zone	-6504
viral	-6505
▁called	-6506
▁lumbar	-6507
▁plaque	-6508
▁66	-6509
▁teeth	-6510
▁crystal	-6511
blind	-6512
▁crystall	-6513
▁already	-6514
plete	-6515
▁rv	-6516
▁elevation	-6517
andem	-6518
▁prev	-6519
▁monitor	-6520
▁stromal	-6521
▁contributing	-6522
▁ultim	-6523
aden	-6524
▁53	-6525
effective	-6526
▁commit	-6527
▁synergistic	-6528
▁starting	-6529
▁selectivity	-6530
▁redox	-6531
88	-6532
fam	-6533
▁dimin	-6534
lycer	-6535
▁dendritic	-6536
▁fields	-6537
▁performing	-6538
,000	-6539
uation	-6540
▁electrical	-6541
▁phenomenon	-6542
▁nad	-6543
itability	-6544
▁largest	-6545
▁programme	-6546
hi	-6547
▁59	-6548
▁investigating	-6549
▁triple	-6550
▁idi	-6551
▁aneurysm	-6552
dib	-6553
▁compens	-6554
cap	-6555
▁translocation	-6556
▁dialysis	-6557
▁chap	-6558
ala	-6559
▁drain	-6560
▁classes	-6561
oplasty	-6562
▁overcome	-6563
▁fasting	-6564
▁rise	-6565
aling	-6566
▁hor	-6567
▁couns	-6568
▁infiltration	-6569
▁consistently	-6570
romy	-6571
uits	-6572
▁equivalent	-6573
▁volunteers	-6574
▁govern	-6575
ians	-6576
exist	-6577
ustry	-6578
▁allergic	-6579
▁consequently	-6580
▁mobility	-6581
▁glioma	-6582
▁pigs	-6583
▁64	-6584
▁neigh	-6585
ignment	-6586
▁antibacterial	-6587
▁probably	-6588
ensor	-6589
▁deviation	-6590
▁march	-6591
▁speech	-6592
▁2000	-6593
▁1.2	-6594
plc	-6595
stead	-6596
▁fine	-6597
▁sensiti	-6598
▁text	-6599
▁refrac	-6600
icit	-6601
natal	-6602
▁pic	-6603
gd	-6604
phthal	-6605
herent	-6606
▁extension	-6607
▁country	-6608
▁jour	-6609
▁acetyl	-6610
▁neither	-6611
app	-6612
▁sirna	-6613
with	-6614
edic	-6615
hel	-6616
▁manifestations	-6617
▁automated	-6618
▁dorsal	-6619
▁univariate	-6620
appro	-6621
▁clon	-6622
▁substantially	-6623
small	-6624
▁retic	-6625
<0.05).	-6626
▁insurance	-6627
▁susceptible	-6628
▁sched	-6629
▁entry	-6630
▁lymphocytes	-6631
▁flap	-6632
▁biopsies	-6633
▁nar	-6634
▁somatic	-6635
iaz	-6636
.3%)	-6637
▁protect	-6638
▁approved	-6639
▁hard	-6640
▁medline	-6641
▁yielded	-6642
▁constrain	-6643
▁dependence	-6644
4+	-6645
▁standards	-6646
ee	-6647
tering	-6648
▁osc	-6649
▁mucosal	-6650
elec	-6651
▁hematopoietic	-6652
▁staphylococcus	-6653
▁systematically	-6654
▁closure	-6655
▁maximal	-6656
sensitive	-6657
▁blue	-6658
▁harm	-6659
▁rig	-6660
opausal	-6661
▁industry	-6662
▁correlate	-6663
▁pharmacokinetic	-6664
ola	-6665
▁bip	-6666
▁multicenter	-6667
rotein	-6668
▁ger	-6669
pyr	-6670
amma	-6671
▁phases	-6672
▁released	-6673
▁(<	-6674
▁capture	-6675
▁identity	-6676
▁discovered	-6677
transferase	-6678
▁pes	-6679
▁purified	-6680
0%,	-6681
▁bm	-6682
▁marine	-6683
▁steroid	-6684
▁stimulus	-6685
9;	-6686
▁express	-6687
▁amounts	-6688
▁episodes	-6689
avail	-6690
▁start	-6691
▁nutrient	-6692
▁1.4	-6693
▁discontin	-6694
eren	-6695
brain	-6696
▁oa	-6697
▁walking	-6698
▁caregivers	-6699
asty	-6700
▁inducing	-6701
▁coag	-6702
▁peroxid	-6703
tase	-6704
ont	-6705
▁(13	-6706
▁cris	-6707
▁ket	-6708
▁dehydrogen	-6709
▁aqu	-6710
axel	-6711
veolar	-6712
arthritis	-6713
▁96	-6714
▁expert	-6715
▁endometrial	-6716
▁comprom	-6717
-20	-6718
▁2.3	-6719
▁intracranial	-6720
▁fact	-6721
▁sf	-6722
artile	-6723
▁bond	-6724
▁dermat	-6725
oin	-6726
▁51	-6727
oor	-6728
▁icu	-6729
▁macro	-6730
making	-6731
vari	-6732
asome	-6733
▁meaning	-6734
▁ultra	-6735
▁ts	-6736
▁osteopor	-6737
▁rich	-6738
▁uses	-6739
points	-6740
inating	-6741
▁mono	-6742
▁construct	-6743
pectives	-6744
astolic	-6745
▁micrornas	-6746
▁proton	-6747
▁harb	-6748
-(	-6749
▁tro	-6750
▁fear	-6751
▁pyl	-6752
ofib	-6753
otoxicity	-6754
▁ecological	-6755
gered	-6756
▁addressed	-6757
▁blind	-6758
icular	-6759
▁palliative	-6760
▁perspectives	-6761
▁seizures	-6762
requency	-6763
▁leak	-6764
▁inpatient	-6765
▁efficiently	-6766
▁arabid	-6767
▁changing	-6768
▁peg	-6769
▁fet	-6770
▁stronger	-6771
orescence	-6772
▁notably	-6773
6;	-6774
▁demand	-6775
▁inten	-6776
▁genetically	-6777
▁thym	-6778
▁vision	-6779
▁temperatures	-6780
rared	-6781
▁pip	-6782
▁transcriptome	-6783
▁permeability	-6784
▁proportional	-6785
▁uterine	-6786
▁scans	-6787
▁relax	-6788
▁arabidopsis	-6789
87	-6790
▁encour	-6791
feeding	-6792
▁rectal	-6793
▁contains	-6794
▁reversed	-6795
▁mn	-6796
▁asian	-6797
▁arthro	-6798
▁anomal	-6799
ocon	-6800
▁surveys	-6801
▁formal	-6802
▁refractory	-6803
<0.001).	-6804
▁smokers	-6805
▁enriched	-6806
▁preferred	-6807
partum	-6808
▁trajec	-6809
amb	-6810
ocking	-6811
aric	-6812
pn	-6813
▁untreated	-6814
▁camp	-6815
ycl	-6816
ulties	-6817
▁pharmaceutical	-6818
▁ldl	-6819
▁overexp	-6820
olysis	-6821
▁locations	-6822
osity	-6823
four	-6824
▁latter	-6825
▁tooth	-6826
▁market	-6827
urgical	-6828
▁complicated	-6829
coprotein	-6830
▁si	-6831
▁99	-6832
▁india	-6833
▁tumours	-6834
▁nano	-6835
▁facilities	-6836
01),	-6837
▁topical	-6838
▁description	-6839
▁dent	-6840
▁intrap	-6841
▁psychosocial	-6842
factor	-6843
▁regulators	-6844
▁false	-6845
▁(11	-6846
▁indications	-6847
▁anemia	-6848
▁focusing	-6849
au	-6850
▁biomass	-6851
oclonal	-6852
▁emphas	-6853
▁acceptable	-6854
▁greatly	-6855
▁glauc	-6856
▁78	-6857
▁demonstrating	-6858
▁coding	-6859
independent	-6860
▁1.3	-6861
▁instead	-6862
▁compliance	-6863
▁prescription	-6864
▁proved	-6865
uch	-6866
▁table	-6867
▁injected	-6868
▁easily	-6869
▁restriction	-6870
8;	-6871
▁neuros	-6872
▁preventive	-6873
▁motility	-6874
▁mtor	-6875
▁frontal	-6876
▁contributed	-6877
▁tg	-6878
tnf	-6879
▁namely	-6880
▁immobil	-6881
▁cleavage	-6882
ofl	-6883
▁australia	-6884
ips	-6885
▁spectra	-6886
▁indust	-6887
▁volumes	-6888
▁eosin	-6889
▁mv	-6890
▁inhal	-6891
olin	-6892
uncture	-6893
fron	-6894
▁conduct	-6895
▁antitumor	-6896
▁euk	-6897
▁2.4	-6898
inosa	-6899
▁excessive	-6900
quality	-6901
',	-6902
acs	-6903
.7%)	-6904
oxygen	-6905
▁fibers	-6906
▁pulse	-6907
plasty	-6908
▁direction	-6909
▁allevi	-6910
▁tree	-6911
▁explo	-6912
▁anthrop	-6913
▁susp	-6914
▁examinations	-6915
▁spectral	-6916
▁uncom	-6917
▁dros	-6918
▁carbohyd	-6919
▁reach	-6920
▁driven	-6921
aterial	-6922
▁reductions	-6923
mr	-6924
▁socioeconomic	-6925
▁exclusive	-6926
ilic	-6927
▁eukary	-6928
▁ni	-6929
▁girls	-6930
▁fist	-6931
▁fifty	-6932
▁section	-6933
▁2007	-6934
▁curves	-6935
▁undert	-6936
▁oncology	-6937
▁difficulties	-6938
uscular	-6939
ison	-6940
density	-6941
ito	-6942
▁suicide	-6943
▁10%	-6944
bility	-6945
▁psoriasis	-6946
▁∼	-6947
▁neuroprot	-6948
▁enrichment	-6949
▁powerful	-6950
ora	-6951
▁statistics	-6952
▁autis	-6953
▁mc	-6954
▁glutamate	-6955
▁epithelium	-6956
▁promin	-6957
▁ways	-6958
▁cirrhosis	-6959
▁atypical	-6960
▁lens	-6961
▁compression	-6962
▁pure	-6963
▁accurately	-6964
▁institution	-6965
▁ho	-6966
osus	-6967
▁77	-6968
ipitation	-6969
gp	-6970
▁physiology	-6971
▁duc	-6972
▁obstruction	-6973
▁classical	-6974
▁monoclonal	-6975
▁twice	-6976
gens	-6977
6),	-6978
atile	-6979
▁restricted	-6980
▁bes	-6981
▁mobile	-6982
▁epidermal	-6983
thetic	-6984
▁mother	-6985
▁interference	-6986
driven	-6987
▁comprised	-6988
▁gradient	-6989
▁nam	-6990
▁sevent	-6991
oprot	-6992
then	-6993
ono	-6994
▁referral	-6995
ighting	-6996
iae	-6997
▁cover	-6998
▁stratified	-6999
nc	-7000
▁metabolite	-7001
▁toxin	-7002
eps	-7003
▁locus	-7004
▁proven	-7005
posite	-7006
▁engagement	-7007
▁dehydrogenase	-7008
▁coupling	-7009
▁indicator	-7010
ophilic	-7011
▁embryo	-7012
hp	-7013
▁cellul	-7014
▁mer	-7015
resolution	-7016
▁modalities	-7017
▁foods	-7018
▁resting	-7019
imensions	-7020
▁loop	-7021
▁edema	-7022
artments	-7023
▁hypothes	-7024
▁idiopathic	-7025
▁mast	-7026
▁nt	-7027
draw	-7028
▁aberrant	-7029
▁diffuse	-7030
inform	-7031
▁cystic	-7032
▁62	-7033
▁(15	-7034
▁trop	-7035
▁output	-7036
heres	-7037
▁(16	-7038
▁alleles	-7039
▁video	-7040
eutics	-7041
▁defense	-7042
▁outside	-7043
▁sham	-7044
aro	-7045
itosan	-7046
▁born	-7047
▁enables	-7048
▁pts	-7049
▁adsorption	-7050
▁casc	-7051
▁trap	-7052
▁preference	-7053
▁sca	-7054
▁rheumatoid	-7055
▁contents	-7056
▁create	-7057
▁tumorigen	-7058
pin	-7059
▁contamin	-7060
▁erythro	-7061
▁(17	-7062
▁sent	-7063
.6%)	-7064
▁july	-7065
rafish	-7066
▁copper	-7067
▁atrophy	-7068
▁true	-7069
▁architecture	-7070
▁burn	-7071
ulture	-7072
ochrome	-7073
▁downregulation	-7074
▁receiver	-7075
amycin	-7076
dibular	-7077
▁sv	-7078
ibration	-7079
▁zebrafish	-7080
▁unilateral	-7081
▁mixture	-7082
▁novo	-7083
ulmonary	-7084
▁manual	-7085
▁abstr	-7086
▁protease	-7087
▁premature	-7088
aa	-7089
▁income	-7090
ples	-7091
▁activating	-7092
iologic	-7093
▁quad	-7094
▁lineage	-7095
▁irr	-7096
▁studying	-7097
▁dimensions	-7098
▁unlike	-7099
▁20%	-7100
urated	-7101
▁76	-7102
▁du	-7103
▁(19	-7104
rand	-7105
lands	-7106
ocular	-7107
▁appearance	-7108
memb	-7109
▁hif	-7110
itig	-7111
▁complementary	-7112
▁exogenous	-7113
▁prescribed	-7114
▁surrounding	-7115
▁elucidated	-7116
bral	-7117
▁amplitude	-7118
▁63	-7119
otensin	-7120
▁wheat	-7121
▁participate	-7122
▁tp	-7123
▁deter	-7124
▁evid	-7125
.8%)	-7126
▁10(	-7127
▁vascul	-7128
▁rarely	-7129
▁schem	-7130
▁postnatal	-7131
▁colitis	-7132
umn	-7133
hern	-7134
▁chor	-7135
▁antigens	-7136
▁priv	-7137
▁cvd	-7138
▁gall	-7139
▁sel	-7140
▁emergence	-7141
▁buff	-7142
/1	-7143
▁0·	-7144
▁validate	-7145
▁pylori	-7146
tes	-7147
▁finger	-7148
▁sensing	-7149
aced	-7150
▁applying	-7151
▁volt	-7152
cemic	-7153
▁nanos	-7154
▁creatinine	-7155
tisol	-7156
antic	-7157
lipid	-7158
fluor	-7159
▁lup	-7160
▁hospitalized	-7161
▁representing	-7162
oler	-7163
▁arom	-7164
▁exact	-7165
▁dc	-7166
perform	-7167
▁ht	-7168
▁69	-7169
ques	-7170
▁microarray	-7171
▁biomed	-7172
theless	-7173
fat	-7174
▁jud	-7175
▁rr	-7176
▁61	-7177
ospor	-7178
▁nevertheless	-7179
amino	-7180
▁85	-7181
▁zn	-7182
▁adapt	-7183
▁effort	-7184
▁sud	-7185
▁april	-7186
lact	-7187
▁2016.	-7188
▁drosophila	-7189
.4%)	-7190
vered	-7191
▁bc	-7192
▁nct	-7193
ufact	-7194
▁acts	-7195
▁input	-7196
▁decade	-7197
cyte	-7198
reactive	-7199
throughput	-7200
▁nin	-7201
4%)	-7202
▁fra	-7203
▁exce	-7204
▁careful	-7205
▁principal	-7206
▁gaba	-7207
ulus	-7208
hazard	-7209
▁lost	-7210
aste	-7211
pop	-7212
▁examining	-7213
▁definition	-7214
▁violence	-7215
▁downregulated	-7216
▁grap	-7217
▁centre	-7218
▁precursor	-7219
▁inner	-7220
rought	-7221
pes	-7222
▁endovascular	-7223
▁incomplete	-7224
▁gait	-7225
ocompati	-7226
▁gestation	-7227
aped	-7228
cardi	-7229
▁initiated	-7230
▁csf	-7231
ynthetic	-7232
▁relie	-7233
▁triglycer	-7234
1/2	-7235
▁always	-7236
▁see	-7237
▁attachment	-7238
▁hos	-7239
▁88	-7240
▁sirt	-7241
uron	-7242
▁phosphatase	-7243
▁trait	-7244
▁bor	-7245
▁category	-7246
▁bioactive	-7247
▁effector	-7248
map	-7249
comp	-7250
▁hall	-7251
▁movements	-7252
chlor	-7253
▁senes	-7254
▁knockout	-7255
▁policies	-7256
▁dyst	-7257
▁consideration	-7258
▁sun	-7259
▁removed	-7260
▁faster	-7261
icate	-7262
▁principl	-7263
▁pay	-7264
▁ankle	-7265
▁tau	-7266
arum	-7267
.2%)	-7268
▁conformational	-7269
▁parts	-7270
▁exposures	-7271
fort	-7272
ober	-7273
▁substances	-7274
ococcal	-7275
3%)	-7276
▁multim	-7277
▁collectively	-7278
ocortic	-7279
▁bile	-7280
traum	-7281
▁dev	-7282
▁cg	-7283
▁trigg	-7284
▁dn	-7285
osarcoma	-7286
▁summarize	-7287
▁peer	-7288
▁fragment	-7289
porters	-7290
▁bay	-7291
▁reactivity	-7292
▁injections	-7293
▁extrem	-7294
▁exists	-7295
▁endocrine	-7296
78	-7297
▁5,	-7298
▁cere	-7299
▁corticoster	-7300
:1	-7301
▁macular	-7302
▁season	-7303
formin	-7304
gov	-7305
▁cannab	-7306
▁attack	-7307
3/	-7308
▁notch	-7309
▁practitioners	-7310
▁manufact	-7311
▁sea	-7312
▁paradigm	-7313
dif	-7314
▁orientation	-7315
idium	-7316
▁0.04	-7317
five	-7318
▁metric	-7319
▁syndrom	-7320
▁synchron	-7321
▁goals	-7322
▁cns	-7323
▁circulation	-7324
▁cavity	-7325
▁opportunity	-7326
];	-7327
▁unus	-7328
assemb	-7329
uginosa	-7330
iod	-7331
▁ball	-7332
▁prophylaxis	-7333
▁clinicopath	-7334
▁-2	-7335
▁evident	-7336
▁curc	-7337
▁sound	-7338
▁dl	-7339
▁english	-7340
▁withdraw	-7341
▁arrhyth	-7342
▁histology	-7343
▁principles	-7344
peptide	-7345
▁sequential	-7346
▁porcine	-7347
▁mediators	-7348
▁similarity	-7349
oplasm	-7350
▁ecosystem	-7351
ulos	-7352
▁1.1	-7353
▁lactate	-7354
omestic	-7355
oms	-7356
cit	-7357
▁gamma	-7358
▁nac	-7359
▁reporter	-7360
olid	-7361
hum	-7362
▁gangl	-7363
▁activator	-7364
ultural	-7365
depress	-7366
▁glaucoma	-7367
▁tc	-7368
itary	-7369
▁instability	-7370
iley	-7371
▁extend	-7372
▁tac	-7373
▁raw	-7374
▁aeruginosa	-7375
vae	-7376
▁give	-7377
thern	-7378
opolys	-7379
▁undertaken	-7380
▁nig	-7381
▁aort	-7382
sign	-7383
▁lncr	-7384
▁college	-7385
uous	-7386
▁vo	-7387
▁ras	-7388
▁mediate	-7389
7;	-7390
▁perman	-7391
▁fis	-7392
apt	-7393
▁reinf	-7394
icillin	-7395
▁roots	-7396
▁suppressor	-7397
▁perfor	-7398
tilis	-7399
ophen	-7400
▁claim	-7401
9),	-7402
▁inher	-7403
▁cognition	-7404
▁structured	-7405
▁pregnancies	-7406
▁osteoarthritis	-7407
▁minimally	-7408
▁segments	-7409
▁scoring	-7410
▁orb	-7411
agic	-7412
▁generalized	-7413
▁vehicle	-7414
▁fractions	-7415
▁auc	-7416
▁uns	-7417
▁seizure	-7418
diab	-7419
▁mitig	-7420
▁peritoneal	-7421
▁formulations	-7422
▁2.6	-7423
idase	-7424
▁southern	-7425
▁algorithms	-7426
rees	-7427
rown	-7428
▁inactivation	-7429
bmi	-7430
▁8-	-7431
▁cytoplasmic	-7432
▁sap	-7433
▁reading	-7434
zyme	-7435
tte	-7436
▁cattle	-7437
▁institute	-7438
▁modulating	-7439
▁empirical	-7440
▁blotting	-7441
▁fungi	-7442
0%)	-7443
ears	-7444
0.8	-7445
▁120	-7446
▁distant	-7447
▁addi	-7448
▁6,	-7449
borne	-7450
▁diets	-7451
entical	-7452
atch	-7453
▁kinetic	-7454
-13	-7455
▁fertility	-7456
lit	-7457
▁cues	-7458
ofluorescence	-7459
▁97	-7460
)/	-7461
▁leptin	-7462
vian	-7463
health	-7464
▁plur	-7465
vac	-7466
his	-7467
▁lam	-7468
ierarch	-7469
▁propensity	-7470
uate	-7471
▁noninvasive	-7472
▁diastolic	-7473
▁tor	-7474
▁band	-7475
lastic	-7476
step	-7477
ret	-7478
odal	-7479
▁supply	-7480
▁why	-7481
▁mucosa	-7482
▁excision	-7483
▁necro	-7484
ticular	-7485
▁0.03	-7486
▁equal	-7487
▁northern	-7488
icing	-7489
▁tight	-7490
▁antidepress	-7491
▁photos	-7492
▁98	-7493
▁recovered	-7494
▁producing	-7495
▁hydrophobic	-7496
▁,	-7497
▁inters	-7498
traction	-7499
▁paired	-7500
▁postpartum	-7501
▁deterior	-7502
herin	-7503
▁sph	-7504
▁selectively	-7505
▁cigare	-7506
▁paed	-7507
▁neonates	-7508
lig	-7509
▁larvae	-7510
▁revision	-7511
▁metformin	-7512
-/-)	-7513
▁mp	-7514
▁domestic	-7515
trials	-7516
apopt	-7517
▁24-	-7518
▁spermat	-7519
▁inoc	-7520
kelet	-7521
▁financ	-7522
▁insufficient	-7523
atp	-7524
▁autism	-7525
tomy	-7526
orp	-7527
▁iod	-7528
▁mapk	-7529
▁biomedical	-7530
▁cortisol	-7531
▁snp	-7532
▁neuropsych	-7533
admin	-7534
.1%)	-7535
pler	-7536
ional	-7537
▁makes	-7538
58	-7539
glia	-7540
▁90%	-7541
▁fatal	-7542
▁ded	-7543
non	-7544
▁hc	-7545
cancer	-7546
▁achieving	-7547
▁hierarch	-7548
rex	-7549
ime	-7550
▁spor	-7551
▁nav	-7552
▁driving	-7553
lymer	-7554
rance	-7555
▁actual	-7556
▁mosqu	-7557
nr	-7558
▁nlr	-7559
▁salivary	-7560
ipot	-7561
▁testosterone	-7562
▁wind	-7563
ographics	-7564
▁oscill	-7565
▁terminal	-7566
▁87	-7567
patients	-7568
letes	-7569
astatin	-7570
valent	-7571
otes	-7572
chang	-7573
▁flavon	-7574
▁paediatric	-7575
seq	-7576
▁71	-7577
▁forces	-7578
opl	-7579
▁chi	-7580
▁2006	-7581
▁partner	-7582
▁tick	-7583
▁encaps	-7584
▁controversial	-7585
dian	-7586
▁expanded	-7587
atosis	-7588
xic	-7589
eptive	-7590
mor	-7591
▁chitosan	-7592
▁ubiquit	-7593
▁greatest	-7594
gia	-7595
adequ	-7596
2%)	-7597
▁anatomy	-7598
phenyl	-7599
oglobulin	-7600
▁themes	-7601
matic	-7602
▁stom	-7603
▁binds	-7604
che	-7605
▁abor	-7606
▁wiley	-7607
prom	-7608
▁hu	-7609
▁blast	-7610
▁coherence	-7611
▁drop	-7612
plastic	-7613
▁pca	-7614
▁ultimately	-7615
▁influencing	-7616
▁lupus	-7617
▁trained	-7618
ares	-7619
▁sixty	-7620
vol	-7621
liferative	-7622
▁sna	-7623
▁qol	-7624
▁bud	-7625
▁depri	-7626
aor	-7627
▁antif	-7628
.9%)	-7629
cam	-7630
uitary	-7631
▁helic	-7632
▁ars	-7633
▁perin	-7634
▁(≥	-7635
▁author	-7636
▁september	-7637
tured	-7638
▁hp	-7639
▁scat	-7640
diagn	-7641
oli	-7642
lution	-7643
▁immunotherapy	-7644
bound	-7645
▁microorgan	-7646
▁october	-7647
▁kinases	-7648
▁1.9	-7649
labelled	-7650
▁viable	-7651
0.9	-7652
bt	-7653
▁managed	-7654
▁rank	-7655
abolic	-7656
ervative	-7657
▁leaders	-7658
▁acuity	-7659
reed	-7660
▁bodies	-7661
ories	-7662
expression	-7663
▁swe	-7664
holic	-7665
nat	-7666
▁ones	-7667
▁mosquito	-7668
▁radiological	-7669
▁ont	-7670
aly	-7671
▁mda	-7672
onography	-7673
erge	-7674
▁0.05	-7675
▁charge	-7676
6%)	-7677
▁onto	-7678
ices	-7679
▁bioavail	-7680
▁activate	-7681
ubicin	-7682
enhanced	-7683
▁dro	-7684
ologist	-7685
▁clarify	-7686
oses	-7687
▁prominent	-7688
▁australian	-7689
three	-7690
▁passive	-7691
effec	-7692
emporal	-7693
▁elimination	-7694
ocin	-7695
▁mmol	-7696
))	-7697
▁2.7	-7698
▁financial	-7699
▁dosing	-7700
▁(14	-7701
2.5	-7702
producing	-7703
benz	-7704
▁para	-7705
tg	-7706
▁evol	-7707
hex	-7708
▁3)	-7709
▁fluct	-7710
membrane	-7711
▁endpoint	-7712
▁secreted	-7713
66	-7714
▁causal	-7715
▁intest	-7716
▁optic	-7717
▁unexpected	-7718
▁brid	-7719
▁provin	-7720
▁thal	-7721
▁locally	-7722
accharides	-7723
body	-7724
▁pn	-7725
astom	-7726
iqr	-7727
▁emphasis	-7728
▁landsc	-7729
▁papill	-7730
▁2012.	-7731
▁serot	-7732
▁trache	-7733
▁cultural	-7734
▁pathologic	-7735
▁stop	-7736
▁cran	-7737
▁confer	-7738
▁osteoporosis	-7739
▁scler	-7740
cepts	-7741
▁immuno	-7742
interven	-7743
avirus	-7744
oden	-7745
▁beam	-7746
▁positions	-7747
sts	-7748
▁thin	-7749
▁clinics	-7750
▁sulfate	-7751
ensities	-7752
wan	-7753
▁va	-7754
▁colony	-7755
ira	-7756
▁dip	-7757
stimulated	-7758
▁electroph	-7759
▁easy	-7760
▁represented	-7761
orer	-7762
▁immunosupp	-7763
▁margin	-7764
rays	-7765
▁contamination	-7766
▁tracking	-7767
▁bed	-7768
▁schools	-7769
▁inadequ	-7770
-14	-7771
▁tam	-7772
▁sple	-7773
▁80%	-7774
▁covered	-7775
▁breeding	-7776
▁highlighted	-7777
▁chemistry	-7778
▁pod	-7779
unced	-7780
tet	-7781
▁boys	-7782
▁solub	-7783
▁postoperatively	-7784
operation	-7785
▁became	-7786
▁3.0	-7787
irs	-7788
▁mmhg	-7789
▁usage	-7790
▁cytochrome	-7791
▁treg	-7792
terone	-7793
▁guideline	-7794
thood	-7795
▁outer	-7796
▁neurom	-7797
▁trigger	-7798
▁cyclic	-7799
▁amin	-7800
▁covari	-7801
▁unusual	-7802
fill	-7803
-1.	-7804
▁phag	-7805
oming	-7806
▁hypothal	-7807
▁150	-7808
▁besides	-7809
▁narrow	-7810
▁neuron	-7811
uction	-7812
▁hepar	-7813
-19	-7814
▁blocked	-7815
▁graf	-7816
▁therapeutics	-7817
▁sugar	-7818
▁asd	-7819
nic	-7820
abine	-7821
▁share	-7822
▁informed	-7823
▁differentiate	-7824
▁route	-7825
▁isot	-7826
▁hba	-7827
▁rb	-7828
▁fu	-7829
▁excre	-7830
▁incubation	-7831
▁accelerated	-7832
▁phospholip	-7833
▁extensively	-7834
▁involve	-7835
▁coordination	-7836
▁79	-7837
cluding	-7838
weighted	-7839
▁fragments	-7840
odialysis	-7841
assium	-7842
▁progenitor	-7843
openia	-7844
▁asked	-7845
▁agric	-7846
▁ia	-7847
ameth	-7848
▁predicts	-7849
orbent	-7850
▁placental	-7851
omotor	-7852
▁continue	-7853
onsist	-7854
▁labeling	-7855
hn	-7856
▁warranted	-7857
▁superoxide	-7858
adily	-7859
▁methodological	-7860
▁obvious	-7861
▁config	-7862
▁1000	-7863
▁just	-7864
▁radio	-7865
▁docking	-7866
six	-7867
▁shed	-7868
▁curcumin	-7869
▁nrf	-7870
ki	-7871
romb	-7872
jun	-7873
▁tai	-7874
▁automatic	-7875
▁building	-7876
▁0.02	-7877
ocated	-7878
▁city	-7879
esare	-7880
▁utilizing	-7881
▁mscs	-7882
▁conservation	-7883
▁500	-7884
▁sections	-7885
▁law	-7886
elles	-7887
my	-7888
▁farm	-7889
▁absent	-7890
▁insec	-7891
▁select	-7892
▁modulated	-7893
▁aerobic	-7894
riend	-7895
odef	-7896
family	-7897
▁perturb	-7898
cas	-7899
▁84	-7900
▁2014,	-7901
▁sick	-7902
▁pluripot	-7903
icients	-7904
▁fas	-7905
key	-7906
▁sarc	-7907
▁gd	-7908
▁ace	-7909
▁staging	-7910
▁74	-7911
▁carrying	-7912
▁persistence	-7913
▁elong	-7914
▁2.8	-7915
athy	-7916
▁egg	-7917
▁athletes	-7918
▁existence	-7919
▁copy	-7920
opes	-7921
▁ventric	-7922
ergly	-7923
opia	-7924
▁preferences	-7925
▁hypertrophy	-7926
▁circa	-7927
▁homolog	-7928
▁ot	-7929
idi	-7930
▁tf	-7931
obacteria	-7932
orous	-7933
▁3.5	-7934
▁fetus	-7935
▁tendon	-7936
lv	-7937
bir	-7938
▁concluded	-7939
zer	-7940
▁(25	-7941
▁predis	-7942
▁mood	-7943
▁analyzing	-7944
▁cardiomyopathy	-7945
▁proinflammatory	-7946
+/	-7947
tent	-7948
▁coating	-7949
py	-7950
▁tt	-7951
▁blockade	-7952
▁ophthal	-7953
ulder	-7954
infection	-7955
7),	-7956
linear	-7957
▁comprising	-7958
▁2005	-7959
effectiveness	-7960
▁ideal	-7961
▁)	-7962
▁exhibits	-7963
▁respective	-7964
del	-7965
▁potentials	-7966
frontal	-7967
▁radiographic	-7968
▁vesicles	-7969
panic	-7970
1%)	-7971
▁genetics	-7972
▁solvent	-7973
▁pup	-7974
ush	-7975
oxin	-7976
pg	-7977
enta	-7978
eta	-7979
retro	-7980
▁drive	-7981
▁eeg	-7982
grow	-7983
esarean	-7984
income	-7985
7%)	-7986
raine	-7987
▁coefficients	-7988
▁86	-7989
gram	-7990
-100	-7991
▁rhin	-7992
▁swed	-7993
▁electrode	-7994
▁isoforms	-7995
ishman	-7996
▁instruc	-7997
▁reinfor	-7998
onate	-7999
dt	-8000
▁circadian	-8001
▁salmonella	-8002
▁ki	-8003
loaded	-8004
▁trich	-8005
▁situation	-8006
bec	-8007
▁probes	-8008
▁blocks	-8009
oqu	-8010
▁demographics	-8011
valu	-8012
▁administr	-8013
ostatic	-8014
▁provision	-8015
▁microglia	-8016
▁distributions	-8017
▁0.01)	-8018
▁modality	-8019
physiological	-8020
▁opin	-8021
▁73	-8022
▁annot	-8023
▁hormones	-8024
osing	-8025
55	-8026
▁needle	-8027
ceral	-8028
▁carcinomas	-8029
▁fibrin	-8030
▁fasc	-8031
▁prono	-8032
▁conservative	-8033
psia	-8034
▁underl	-8035
▁wors	-8036
▁ibd	-8037
▁parasites	-8038
▁sar	-8039
erves	-8040
▁permanent	-8041
▁contributions	-8042
▁immunodef	-8043
▁(100	-8044
▁accep	-8045
rated	-8046
▁usa	-8047
▁residue	-8048
gene	-8049
▁functionally	-8050
▁pronounced	-8051
▁promotion	-8052
responsive	-8053
▁canada	-8054
▁return	-8055
▁alt	-8056
▁virtual	-8057
transl	-8058
▁tag	-8059
otine	-8060
▁tryp	-8061
▁emt	-8062
▁flux	-8063
▁consequence	-8064
▁hypertensive	-8065
▁closed	-8066
▁om	-8067
targeted	-8068
▁incorporated	-8069
▁30%	-8070
▁300	-8071
▁bic	-8072
▁89	-8073
▁dosage	-8074
isp	-8075
▁diarr	-8076
▁herb	-8077
▁bif	-8078
▁hdl	-8079
▁endometri	-8080
▁malform	-8081
si	-8082
▁mb	-8083
partic	-8084
omorph	-8085
▁oxidase	-8086
ographical	-8087
▁job	-8088
▁junction	-8089
▁potassium	-8090
▁duct	-8091
▁layers	-8092
engue	-8093
▁institutional	-8094
▁engineered	-8095
▁prescrib	-8096
▁repeti	-8097
▁.001).	-8098
aemia	-8099
▁explan	-8100
era	-8101
▁universal	-8102
▁hypers	-8103
phone	-8104
▁ppar	-8105
▁keratin	-8106
▁fc	-8107
▁lic	-8108
▁identical	-8109
▁hybridization	-8110
▁neg	-8111
imetry	-8112
▁syndromes	-8113
▁tandem	-8114
▁meeting	-8115
rip	-8116
▁luc	-8117
▁senescence	-8118
ytes	-8119
ilib	-8120
▁ethical	-8121
▁cation	-8122
site	-8123
opter	-8124
▁fibroblast	-8125
▁resusc	-8126
response	-8127
▁equip	-8128
▁switch	-8129
▁shoulder	-8130
ky	-8131
▁familial	-8132
emographic	-8133
▁datasets	-8134
ometer	-8135
▁quick	-8136
phy	-8137
▁tn	-8138
▁fgf	-8139
aving	-8140
▁nodules	-8141
▁completion	-8142
▁83	-8143
atonin	-8144
▁%,	-8145
▁dissoci	-8146
pal	-8147
▁bab	-8148
5%,	-8149
ionic	-8150
▁obstetric	-8151
▁poorer	-8152
▁microtub	-8153
,"	-8154
▁sole	-8155
▁medicinal	-8156
▁mol	-8157
aryng	-8158
▁alveolar	-8159
▁periodontal	-8160
▁rear	-8161
rants	-8162
▁mcf	-8163
▁adapted	-8164
itic	-8165
▁spleen	-8166
ko	-8167
▁vectors	-8168
▁pseudomonas	-8169
rose	-8170
hene	-8171
▁inside	-8172
▁rationale	-8173
antib	-8174
▁ubiquitin	-8175
ulates	-8176
▁neutrophils	-8177
tored	-8178
▁consent	-8179
▁triggered	-8180
▁round	-8181
▁juven	-8182
▁splicing	-8183
▁distric	-8184
▁meat	-8185
▁difficulty	-8186
▁concepts	-8187
▁adulthood	-8188
▁ips	-8189
▁forest	-8190
▁anastom	-8191
▁industrial	-8192
actin	-8193
iber	-8194
▁incid	-8195
]).	-8196
▁immunization	-8197
▁chondro	-8198
▁mycobacterium	-8199
ova	-8200
▁manage	-8201
encephal	-8202
±1	-8203
▁headache	-8204
▁dengue	-8205
▁monocytes	-8206
▁tbi	-8207
▁offered	-8208
▁simpl	-8209
▁flexible	-8210
tures	-8211
(-/-)	-8212
▁cess	-8213
▁(200	-8214
lt	-8215
▁ammon	-8216
mda	-8217
▁august	-8218
ximab	-8219
▁fold	-8220
▁disp	-8221
▁cyan	-8222
▁yields	-8223
▁unlabelled	-8224
-6,	-8225
▁gm	-8226
▁mediates	-8227
▁update	-8228
▁cond	-8229
▁rupture	-8230
▁carrier	-8231
▁situations	-8232
▁session	-8233
csf	-8234
▁amph	-8235
▁piv	-8236
days	-8237
▁beginning	-8238
77	-8239
▁pu	-8240
▁thres	-8241
▁cros	-8242
restim	-8243
▁birds	-8244
▁ethyl	-8245
▁ethnic	-8246
▁directed	-8247
keleton	-8248
▁definitive	-8249
▁94	-8250
oderm	-8251
▁cessation	-8252
▁innovative	-8253
▁popular	-8254
▁soy	-8255
▁adenosine	-8256
▁addressing	-8257
oking	-8258
▁evaluations	-8259
▁molar	-8260
opolysaccharide	-8261
63	-8262
itting	-8263
▁helpful	-8264
-11	-8265
edded	-8266
inase	-8267
▁colonization	-8268
▁started	-8269
▁focuses	-8270
iar	-8271
▁uniform	-8272
omeric	-8273
▁predictions	-8274
▁household	-8275
▁recombination	-8276
rogenic	-8277
▁publications	-8278
▁matching	-8279
▁usual	-8280
▁travel	-8281
▁mammals	-8282
▁esophag	-8283
apoptotic	-8284
▁breastfeeding	-8285
▁itself	-8286
▁uncertainty	-8287
▁isolate	-8288
▁examples	-8289
▁attractive	-8290
▁perinatal	-8291
▁alteration	-8292
titial	-8293
▁vertebr	-8294
▁mexic	-8295
8),	-8296
▁canal	-8297
roc	-8298
▁collaboration	-8299
nucle	-8300
▁kaplan	-8301
▁adrenal	-8302
▁melatonin	-8303
▁angiotensin	-8304
▁incorporation	-8305
▁suffering	-8306
dc	-8307
▁personality	-8308
▁organism	-8309
▁~	-8310
▁glomerular	-8311
▁register	-8312
orubicin	-8313
4/	-8314
▁geographic	-8315
▁restored	-8316
▁behavioural	-8317
▁blocking	-8318
ylate	-8319
▁plasmid	-8320
▁termin	-8321
▁optimize	-8322
▁20.	-8323
▁surpr	-8324
tam	-8325
▁reticulum	-8326
▁hot	-8327
▁intram	-8328
▁transporters	-8329
▁phosphorylated	-8330
▁inconsist	-8331
▁2.	-8332
▁5%	-8333
athe	-8334
times	-8335
▁lamin	-8336
▁(20	-8337
▁peric	-8338
▁photo	-8339
▁surgeon	-8340
itol	-8341
▁deficit	-8342
▁pneumoniae	-8343
▁92	-8344
▁instruments	-8345
▁immunoglobulin	-8346
pot	-8347
▁naf	-8348
▁consists	-8349
▁dataset	-8350
▁modelling	-8351
▁ile	-8352
nis	-8353
▁preced	-8354
▁intestine	-8355
▁consistency	-8356
▁atm	-8357
▁plans	-8358
▁hydrolysis	-8359
▁follows	-8360
▁bioavailability	-8361
oides	-8362
sf	-8363
traumatic	-8364
▁autologous	-8365
▁separated	-8366
vem	-8367
▁radial	-8368
▁preserved	-8369
▁coping	-8370
▁arthroplasty	-8371
▁horiz	-8372
450	-8373
▁aml	-8374
onical	-8375
▁fecal	-8376
ifi	-8377
▁object	-8378
▁posts	-8379
▁translational	-8380
▁rp	-8381
▁imped	-8382
meier	-8383
gone	-8384
ythem	-8385
▁dramatically	-8386
timal	-8387
▁details	-8388
▁81	-8389
▁stratification	-8390
▁private	-8391
▁brach	-8392
▁provider	-8393
▁circuit	-8394
▁sb	-8395
▁acetate	-8396
cys	-8397
▁detectable	-8398
adic	-8399
▁invent	-8400
▁bipolar	-8401
▁modulates	-8402
thromb	-8403
tice	-8404
▁ccl	-8405
▁catar	-8406
▁verified	-8407
otoxic	-8408
▁mathem	-8409
nec	-8410
▁categorized	-8411
ho	-8412
▁ccr	-8413
▁proteomic	-8414
▁abilities	-8415
▁participant	-8416
59	-8417
▁exclusion	-8418
▁missing	-8419
▁93	-8420
▁adopted	-8421
sr	-8422
▁umb	-8423
▁exploring	-8424
▁prefrontal	-8425
▁bioinform	-8426
▁tumorigenesis	-8427
▁crp	-8428
ocyan	-8429
▁attempt	-8430
retroviral	-8431
▁vertical	-8432
7-	-8433
▁lac	-8434
▁adhd	-8435
▁nicotine	-8436
▁column	-8437
▁glucocortic	-8438
ferenti	-8439
▁prevents	-8440
▁hypergly	-8441
lp	-8442
▁vulnerable	-8443
▁naturally	-8444
▁hemodynamic	-8445
▁microorganisms	-8446
▁establishment	-8447
▁mitral	-8448
ometh	-8449
opulmonary	-8450
▁nr	-8451
anger	-8452
▁haz	-8453
▁capability	-8454
ethylene	-8455
▁conformation	-8456
▁erythem	-8457
remia	-8458
▁rrna	-8459
directed	-8460
(-)	-8461
omod	-8462
▁preservation	-8463
▁coagulation	-8464
▁america	-8465
ilibrium	-8466
▁scenarios	-8467
ady	-8468
▁82	-8469
▁indeed	-8470
▁evolved	-8471
▁2013,	-8472
▁antifung	-8473
=0.01	-8474
▁diminished	-8475
inn	-8476
▁[1	-8477
▁append	-8478
▁carbohydrate	-8479
▁constitu	-8480
▁anticoagul	-8481
▁2.9	-8482
akers	-8483
▁vaccin	-8484
▁epidemic	-8485
▁mimic	-8486
▁hosts	-8487
▁lifetime	-8488
▁indication	-8489
▁wat	-8490
▁ptsd	-8491
▁aki	-8492
▁clustering	-8493
crp	-8494
▁latent	-8495
▁undergone	-8496
pred	-8497
▁hypogly	-8498
from	-8499
▁li	-8500
▁3.1	-8501
▁promise	-8502
▁insect	-8503
▁rotation	-8504
pen	-8505
arter	-8506
eight	-8507
rank	-8508
gesterone	-8509
▁withdrawal	-8510
▁enabled	-8511
▁immunological	-8512
place	-8513
▁thresholds	-8514
▁phant	-8515
det	-8516
▁restoration	-8517
▁transduction	-8518
▁sense	-8519
▁intraper	-8520
▁astrocytes	-8521
fil	-8522
▁migraine	-8523
otherapeutic	-8524
▁resc	-8525
▁drainage	-8526
▁glioblastoma	-8527
defined	-8528
▁rab	-8529
eclam	-8530
▁frail	-8531
▁antagonists	-8532
▁linkage	-8533
▁user	-8534
earing	-8535
▁weekly	-8536
▁nanom	-8537
8%)	-8538
▁ances	-8539
-21	-8540
▁agonists	-8541
▁40%	-8542
▁degrees	-8543
-16	-8544
lings	-8545
▁newborn	-8546
oyl	-8547
▁oocytes	-8548
eclampsia	-8549
▁accepted	-8550
▁film	-8551
▁voltage	-8552
adv	-8553
oustic	-8554
▁lungs	-8555
bruary	-8556
▁cac	-8557
iary	-8558
▁thromboemb	-8559
inin	-8560
▁resident	-8561
▁expend	-8562
ographs	-8563
▁prolifer	-8564
asone	-8565
▁physic	-8566
▁genotyping	-8567
▁managing	-8568
▁neuroprotective	-8569
▁strengthen	-8570
affected	-8571
▁lev	-8572
unting	-8573
▁acup	-8574
ias	-8575
▁hz	-8576
▁fertil	-8577
▁comorbidity	-8578
▁mini	-8579
▁grown	-8580
▁leishman	-8581
▁ug	-8582
poly	-8583
versely	-8584
alled	-8585
▁allergy	-8586
▁metalloprotein	-8587
▁hydrogel	-8588
▁revascular	-8589
▁substitution	-8590
0·	-8591
▁scal	-8592
▁facility	-8593
▁curric	-8594
▁91	-8595
▁elastic	-8596
▁ging	-8597
▁mind	-8598
iol	-8599
▁0.0001).	-8600
▁subunits	-8601
▁medicines	-8602
▁specialized	-8603
▁trafficking	-8604
▁facult	-8605
▁remarkable	-8606
chain	-8607
▁tolerated	-8608
▁potency	-8609
▁androgen	-8610
▁veterans	-8611
elve	-8612
▁lethal	-8613
<0.001)	-8614
▁expendit	-8615
▁applicable	-8616
squ	-8617
pid	-8618
▁ester	-8619
▁protected	-8620
gener	-8621
▁funding	-8622
▁osteoc	-8623
▁cyclin	-8624
▁experimentally	-8625
atidyl	-8626
cadherin	-8627
rench	-8628
▁historical	-8629
ogenicity	-8630
▁reversible	-8631
▁reproducibility	-8632
▁nephro	-8633
oscopic	-8634
▁division	-8635
▁3.2	-8636
▁dic	-8637
osyl	-8638
▁candida	-8639
▁inversely	-8640
▁neuropathy	-8641
domain	-8642
urgery	-8643
▁dich	-8644
▁tric	-8645
▁korean	-8646
ya	-8647
using	-8648
aterials	-8649
▁deprivation	-8650
-3,	-8651
▁braf	-8652
▁accounted	-8653
▁grafts	-8654
▁multiplex	-8655
▁beliefs	-8656
▁hypoxic	-8657
▁kit	-8658
▁encoded	-8659
rile	-8660
▁portal	-8661
▁suppresses	-8662
▁modes	-8663
▁publication	-8664
▁experts	-8665
▁silver	-8666
▁institutions	-8667
▁glycoprotein	-8668
ochrom	-8669
▁abol	-8670
▁construction	-8671
oxacin	-8672
▁players	-8673
ume	-8674
-30	-8675
▁chloride	-8676
ocic	-8677
piration	-8678
▁lect	-8679
▁cows	-8680
▁participating	-8681
including	-8682
▁owing	-8683
diabetic	-8684
▁purposes	-8685
▁twelve	-8686
▁fistula	-8687
▁depos	-8688
▁admissions	-8689
▁bmp	-8690
▁chromosomal	-8691
▁exon	-8692
▁cutoff	-8693
transplant	-8694
▁canine	-8695
▁visceral	-8696
atinib	-8697
▁limiting	-8698
▁taiwan	-8699
▁entit	-8700
▁glass	-8701
▁capillary	-8702
▁antiretroviral	-8703
▁conversely	-8704
▁forward	-8705
▁glyco	-8706
▁patch	-8707
kb	-8708
▁multidrug	-8709
▁novem	-8710
▁grain	-8711
avir	-8712
▁wet	-8713
▁remote	-8714
▁gaps	-8715
yroidism	-8716
airy	-8717
▁shear	-8718
▁seasonal	-8719
har	-8720
▁anticip	-8721
ynec	-8722
dw	-8723
▁cure	-8724
▁let	-8725
▁discus	-8726
▁mediating	-8727
▁identifies	-8728
ln	-8729
▁graph	-8730
cerol	-8731
▁asia	-8732
▁10,	-8733
▁brca	-8734
▁inadequate	-8735
ataly	-8736
▁len	-8737
ffe	-8738
▁td	-8739
zen	-8740
ellow	-8741
▁electrochemical	-8742
▁impairments	-8743
▁november	-8744
▁0.000	-8745
▁polymers	-8746
echanical	-8747
▁filtration	-8748
wave	-8749
cious	-8750
▁endemic	-8751
▁readmission	-8752
cis	-8753
sol	-8754
assay	-8755
rene	-8756
▁lobe	-8757
radiol	-8758
imaging	-8759
▁histologic	-8760
-1),	-8761
▁border	-8762
▁elective	-8763
79	-8764
head	-8765
igation	-8766
▁germany	-8767
▁biliary	-8768
",	-8769
▁aspirin	-8770
▁surprising	-8771
azol	-8772
oresis	-8773
actant	-8774
01,	-8775
▁psa	-8776
▁doxorubicin	-8777
86	-8778
oblasts	-8779
▁eggs	-8780
▁protects	-8781
expressing	-8782
ux	-8783
▁east	-8784
▁anten	-8785
▁distinc	-8786
▁crypt	-8787
▁implanted	-8788
▁turnover	-8789
▁crani	-8790
▁hemodialysis	-8791
▁acting	-8792
▁considerations	-8793
appa	-8794
modified	-8795
enem	-8796
▁infrared	-8797
▁anaest	-8798
▁severely	-8799
▁opposite	-8800
ecs	-8801
▁muscular	-8802
pathetic	-8803
▁discusses	-8804
ropathy	-8805
▁enl	-8806
▁apical	-8807
▁cust	-8808
▁machine	-8809
alt	-8810
▁aorta	-8811
bean	-8812
▁lymphocyte	-8813
effects	-8814
▁microscopic	-8815
▁forming	-8816
ophyll	-8817
intervention	-8818
▁papers	-8819
gence	-8820
▁dw	-8821
iferase	-8822
▁estimating	-8823
▁emotion	-8824
▁aneurysms	-8825
▁february	-8826
▁equation	-8827
▁relaxation	-8828
▁contraction	-8829
▁superv	-8830
rens	-8831
▁nationwide	-8832
fish	-8833
fraction	-8834
▁biocompati	-8835
▁infiltr	-8836
▁diarrhea	-8837
▁productivity	-8838
human	-8839
▁fate	-8840
onuclear	-8841
choline	-8842
epit	-8843
▁hazards	-8844
stat	-8845
▁tap	-8846
▁pfs	-8847
▁attempts	-8848
▁mom	-8849
▁dia	-8850
".	-8851
(1	-8852
▁warm	-8853
oradi	-8854
▁kerat	-8855
▁serotonin	-8856
nes	-8857
▁resuscitation	-8858
▁partly	-8859
▁homogene	-8860
▁gained	-8861
▁anaer	-8862
▁antifungal	-8863
▁hepatocytes	-8864
▁uncommon	-8865
▁processed	-8866
imetric	-8867
existing	-8868
▁neurotox	-8869
quartile	-8870
tee	-8871
▁facilitates	-8872
itinib	-8873
▁steady	-8874
▁nanoparticle	-8875
51	-8876
▁subsets	-8877
▁dut	-8878
▁pollution	-8879
play	-8880
▁property	-8881
▁(50	-8882
▁cascade	-8883
▁retained	-8884
clerotic	-8885
▁spin	-8886
ng	-8887
▁night	-8888
cip	-8889
▁acidic	-8890
▁disparities	-8891
▁manipulation	-8892
▁attenuation	-8893
▁doctors	-8894
▁dairy	-8895
▁myeloma	-8896
▁retrieved	-8897
prof	-8898
emat	-8899
while	-8900
otrophic	-8901
eria	-8902
▁ses	-8903
▁reward	-8904
▁readily	-8905
▁doppler	-8906
▁conceptual	-8907
ods	-8908
▁landscape	-8909
▁signature	-8910
cells	-8911
▁front	-8912
▁shifts	-8913
▁separately	-8914
▁requirement	-8915
oadj	-8916
▁mutagen	-8917
▁declined	-8918
▁ejection	-8919
▁remarkably	-8920
▁axial	-8921
▁rcts	-8922
▁behaviours	-8923
sur	-8924
▁uncon	-8925
▁cathe	-8926
▁scaven	-8927
esophageal	-8928
otechn	-8929
▁counseling	-8930
istar	-8931
▁mathematic	-8932
▁inges	-8933
▁inventory	-8934
▁cxcl	-8935
▁dysregulation	-8936
▁unrelated	-8937
▁eukaryotic	-8938
oadjuvant	-8939
uloskeletal	-8940
▁fermentation	-8941
▁sudden	-8942
fv	-8943
menopausal	-8944
▁bacillus	-8945
▁pancreas	-8946
▁biod	-8947
▁cot	-8948
▁endoplasmic	-8949
▁selen	-8950
▁7,	-8951
▁exploration	-8952
54	-8953
osen	-8954
anium	-8955
▁rejection	-8956
▁films	-8957
▁jus	-8958
▁stra	-8959
76	-8960
tioned	-8961
▁calculations	-8962
8-	-8963
▁statin	-8964
▁7-	-8965
▁purification	-8966
▁attending	-8967
▁accordingly	-8968
▁pituitary	-8969
amus	-8970
uge	-8971
alco	-8972
▁maps	-8973
frequency	-8974
▁dp	-8975
▁intermit	-8976
▁bmd	-8977
▁sox	-8978
0.00	-8979
▁denti	-8980
▁constitutive	-8981
▁phe	-8982
▁3.3	-8983
▁pump	-8984
10,	-8985
amber	-8986
ector	-8987
▁competition	-8988
▁exclusively	-8989
▁visible	-8990
▁opening	-8991
xr	-8992
▁usefulness	-8993
▁limitation	-8994
▁lin	-8995
▁pore	-8996
endocrine	-8997
tium	-8998
litaxel	-8999
▁transmembrane	-9000
▁code	-9001
obac	-9002
▁pestic	-9003
▁drought	-9004
lps	-9005
▁calculate	-9006
▁metrics	-9007
▁operations	-9008
▁wistar	-9009
asia	-9010
▁pancreatitis	-9011
▁pivotal	-9012
▁reperfusion	-9013
▁sep	-9014
▁rhythm	-9015
oblastic	-9016
acing	-9017
▁interstitial	-9018
▁reproduction	-9019
▁ventral	-9020
▁rf	-9021
▁clinicaltrials	-9022
erk	-9023
▁endpoints	-9024
▁swelling	-9025
tem	-9026
rete	-9027
▁mandibular	-9028
▁rearrange	-9029
▁apply	-9030
▁profound	-9031
▁directions	-9032
▁platelets	-9033
8+	-9034
▁becoming	-9035
▁superficial	-9036
▁2015,	-9037
▁serine	-9038
wor	-9039
ulsion	-9040
▁olfactory	-9041
▁shorten	-9042
rus	-9043
▁ranges	-9044
▁fro	-9045
nutri	-9046
▁tip	-9047
▁cysteine	-9048
▁musculoskeletal	-9049
▁silico	-9050
▁400	-9051
threat	-9052
▁took	-9053
tral	-9054
▁stig	-9055
▁sarcoma	-9056
rosp	-9057
▁ft	-9058
▁alignment	-9059
▁ampk	-9060
▁exploratory	-9061
▁metals	-9062
▁adding	-9063
▁xyl	-9064
▁alkaline	-9065
▁microvascular	-9066
▁seeds	-9067
▁juvenile	-9068
▁contempor	-9069
▁telome	-9070
ida	-9071
▁belonging	-9072
▁fluctu	-9073
peg	-9074
▁neoadjuvant	-9075
otides	-9076
▁dysplasia	-9077
▁ectopic	-9078
▁intention	-9079
▁strict	-9080
▁ventil	-9081
▁follicular	-9082
▁french	-9083
▁visualization	-9084
▁confocal	-9085
▁iran	-9086
▁transfection	-9087
aminergic	-9088
idic	-9089
.5%,	-9090
hcc	-9091
▁horizon	-9092
essive	-9093
▁responded	-9094
▁db	-9095
85	-9096
▁enabling	-9097
▁hex	-9098
hour	-9099
▁internet	-9100
▁chains	-9101
▁raised	-9102
-0.9	-9103
analys	-9104
▁retina	-9105
▁nos	-9106
▁derivative	-9107
▁stabilization	-9108
glucose	-9109
▁exert	-9110
▁former	-9111
▁sul	-9112
▁words	-9113
▁neurologic	-9114
hep	-9115
▁lineages	-9116
▁diagnostics	-9117
-29	-9118
▁pathologies	-9119
▁heterozygous	-9120
▁planned	-9121
glyc	-9122
▁bayes	-9123
▁modest	-9124
▁nc	-9125
▁elast	-9126
▁chemicals	-9127
after	-9128
▁rip	-9129
▁complain	-9130
-4-	-9131
▁cytoplasm	-9132
gfp	-9133
▁incorporating	-9134
▁narr	-9135
▁era	-9136
changed	-9137
▁destr	-9138
inone	-9139
▁meaningful	-9140
▁developments	-9141
cons	-9142
▁chosen	-9143
▁propag	-9144
▁cerebellar	-9145
9%)	-9146
▁establishing	-9147
3+	-9148
▁neoplasms	-9149
▁resol	-9150
▁zik	-9151
▁erad	-9152
▁static	-9153
oprotective	-9154
▁loaded	-9155
▁seeking	-9156
imb	-9157
ilization	-9158
▁falls	-9159
▁wounds	-9160
▁leuc	-9161
▁nuclei	-9162
▁progesterone	-9163
▁executive	-9164
▁aver	-9165
fu	-9166
'.	-9167
▁beh	-9168
▁generating	-9169
cir	-9170
▁milit	-9171
▁asper	-9172
ued	-9173
▁60%	-9174
▁colonic	-9175
arp	-9176
▁faculty	-9177
]),	-9178
▁tended	-9179
▁crop	-9180
▁surrog	-9181
▁relaps	-9182
▁curative	-9183
▁sheep	-9184
▁nucleic	-9185
▁brazilian	-9186
▁gyr	-9187
ificant	-9188
▁chd	-9189
62	-9190
▁foundation	-9191
▁ligament	-9192
▁sib	-9193
▁deficient	-9194
▁describing	-9195
▁compati	-9196
▁contral	-9197
▁massive	-9198
real	-9199
▁illustrate	-9200
▁flexibility	-9201
amyl	-9202
▁believed	-9203
▁province	-9204
efficacy	-9205
▁constructs	-9206
▁nh	-9207
ardia	-9208
allow	-9209
▁resolved	-9210
▁heparin	-9211
seven	-9212
▁injured	-9213
▁discover	-9214
▁circular	-9215
▁perf	-9216
▁monol	-9217
threatening	-9218
▁mand	-9219
▁ls	-9220
▁sequenced	-9221
▁produces	-9222
▁gonad	-9223
eter	-9224
▁microbiome	-9225
▁circumference	-9226
▁introduce	-9227
▁hdac	-9228
▁discrep	-9229
resent	-9230
▁perox	-9231
ilical	-9232
▁3.4	-9233
▁west	-9234
▁2004	-9235
▁facilitated	-9236
▁vacu	-9237
itional	-9238
▁orally	-9239
▁chromosomes	-9240
helial	-9241
iciencies	-9242
▁fus	-9243
41	-9244
▁inequ	-9245
89	-9246
▁smoke	-9247
▁robotic	-9248
▁ultrasonography	-9249
tia	-9250
▁serial	-9251
amethasone	-9252
tegr	-9253
▁xenograft	-9254
▁oncogenic	-9255
▁proportions	-9256
▁ld	-9257
onym	-9258
▁mammary	-9259
▁encountered	-9260
hiv	-9261
▁antipsych	-9262
▁cellulose	-9263
▁70%	-9264
▁assisted	-9265
▁dissemination	-9266
▁salv	-9267
▁extremity	-9268
▁bdnf	-9269
▁25%	-9270
oplastic	-9271
6.	-9272
▁polyphen	-9273
▁reflected	-9274
▁contralateral	-9275
▁absorb	-9276
▁nafld	-9277
73	-9278
elves	-9279
▁considerably	-9280
asi	-9281
field	-9282
▁ing	-9283
▁thorough	-9284
▁aur	-9285
▁(0	-9286
▁competitive	-9287
odegrad	-9288
list	-9289
▁son	-9290
▁gem	-9291
▁vertebral	-9292
▁eastern	-9293
vt	-9294
=2	-9295
▁cigarette	-9296
fdg	-9297
▁korea	-9298
▁activates	-9299
▁septic	-9300
▁gam	-9301
▁bearing	-9302
)]	-9303
▁wil	-9304
▁herpes	-9305
▁width	-9306
▁0.05),	-9307
▁cocaine	-9308
ah	-9309
▁gynec	-9310
▁sen	-9311
//	-9312
report	-9313
▁dye	-9314
▁brom	-9315
▁accounting	-9316
▁perc	-9317
▁lign	-9318
▁marginal	-9319
▁als	-9320
▁lith	-9321
posing	-9322
trophic	-9323
aut	-9324
utable	-9325
arse	-9326
verat	-9327
▁immunomod	-9328
utr	-9329
▁medicare	-9330
▁seventy	-9331
arct	-9332
▁mrnas	-9333
sin	-9334
▁carcinogenesis	-9335
imil	-9336
▁analogues	-9337
▁recordings	-9338
length	-9339
puts	-9340
▁autosomal	-9341
▁dermatitis	-9342
▁excretion	-9343
▁nons	-9344
iph	-9345
ectable	-9346
▁intermittent	-9347
▁elicited	-9348
ïve	-9349
▁hous	-9350
▁breathing	-9351
▁programmes	-9352
veratrol	-9353
ift	-9354
▁solubility	-9355
plex	-9356
▁ethics	-9357
enib	-9358
69	-9359
icals	-9360
een	-9361
▁4.5	-9362
apses	-9363
▁mask	-9364
▁hierarchical	-9365
▁quant	-9366
▁rule	-9367
▁competence	-9368
-2)	-9369
▁adjunc	-9370
72	-9371
▁balloon	-9372
intensity	-9373
▁deline	-9374
▁mathematical	-9375
gg	-9376
▁discl	-9377
ubated	-9378
▁homologous	-9379
rox	-9380
▁calibration	-9381
odil	-9382
▁answ	-9383
▁regenerative	-9384
▁aware	-9385
ryst	-9386
▁interacting	-9387
eries	-9388
▁stake	-9389
▁anomalies	-9390
▁aspect	-9391
bearing	-9392
nine	-9393
▁prophylactic	-9394
▁neurotrans	-9395
://	-9396
ius	-9397
aturated	-9398
▁deterioration	-9399
▁recover	-9400
▁overexpressed	-9401
▁grafting	-9402
▁dest	-9403
ponectin	-9404
▁monotherapy	-9405
▁lag	-9406
▁topic	-9407
▁calor	-9408
▁pseudo	-9409
▁fourth	-9410
▁hepg	-9411
▁pad	-9412
▁pin	-9413
▁guided	-9414
▁label	-9415
▁interacts	-9416
▁reserv	-9417
ivity	-9418
▁chicken	-9419
▁synthes	-9420
▁pci	-9421
▁integrin	-9422
-23	-9423
ogeneic	-9424
iliary	-9425
fir	-9426
▁pent	-9427
▁thrombocyt	-9428
opus	-9429
▁frac	-9430
▁military	-9431
▁box	-9432
▁centres	-9433
▁vocal	-9434
ldl	-9435
▁outbreaks	-9436
▁routinely	-9437
vest	-9438
▁arab	-9439
▁cats	-9440
▁puls	-9441
▁clean	-9442
do	-9443
iding	-9444
▁positivity	-9445
unk	-9446
▁spectroscopic	-9447
▁weighted	-9448
▁hl	-9449
atories	-9450
▁caries	-9451
▁monocyte	-9452
▁wastewater	-9453
omyc	-9454
▁stream	-9455
mselves	-9456
▁atherosclerotic	-9457
▁crispr	-9458
▁rub	-9459
ophore	-9460
oxygenase	-9461
▁transmitted	-9462
▁themselves	-9463
obser	-9464
▁ck	-9465
▁morphine	-9466
▁bacterium	-9467
▁ecg	-9468
exper	-9469
▁corrected	-9470
▁urgent	-9471
tories	-9472
bcl	-9473
▁aspiration	-9474
ygd	-9475
▁plasmod	-9476
zes	-9477
analyses	-9478
64	-9479
▁/	-9480
▁causative	-9481
▁pharmacy	-9482
▁incontin	-9483
rele	-9484
▁contemporary	-9485
regn	-9486
▁hyperplasia	-9487
rating	-9488
▁connected	-9489
inj	-9490
▁brown	-9491
▁homozygous	-9492
▁cab	-9493
▁satisfactory	-9494
▁sediment	-9495
ysts	-9496
▁retinopathy	-9497
▁recall	-9498
▁bt	-9499
▁gradually	-9500
▁umbilical	-9501
▁rescue	-9502
onazole	-9503
▁abscess	-9504
▁aggregates	-9505
stud	-9506
label	-9507
▁toll	-9508
▁ratings	-9509
▁collaborative	-9510
▁big	-9511
▁shap	-9512
▁streptococcus	-9513
acycl	-9514
▁anatomic	-9515
▁warf	-9516
▁inherited	-9517
▁attenuates	-9518
opy	-9519
▁normalized	-9520
pf	-9521
proliferative	-9522
▁dog	-9523
▁implementing	-9524
▁displacement	-9525
ellite	-9526
▁leukocyte	-9527
rical	-9528
▁starch	-9529
ellec	-9530
▁addiction	-9531
implant	-9532
▁ber	-9533
ferences	-9534
▁highlighting	-9535
▁get	-9536
▁hors	-9537
ket	-9538
▁aromatic	-9539
bas	-9540
ophilia	-9541
▁branch	-9542
▁observe	-9543
▁cardiomyocytes	-9544
▁mas	-9545
▁commercially	-9546
▁stimulate	-9547
▁glands	-9548
▁dark	-9549
▁tension	-9550
▁transforming	-9551
▁afford	-9552
otub	-9553
▁0,	-9554
stein	-9555
▁additive	-9556
▁compartment	-9557
mar	-9558
▁apnea	-9559
▁analyse	-9560
▁haemat	-9561
▁lute	-9562
▁pollen	-9563
▁reservo	-9564
▁arms	-9565
tructure	-9566
▁meanwhile	-9567
▁mf	-9568
esium	-9569
▁analgesic	-9570
▁3.6	-9571
rospinal	-9572
▁cataract	-9573
teral	-9574
▁giant	-9575
▁pigment	-9576
rous	-9577
▁disturbances	-9578
▁tropical	-9579
▁forced	-9580
▁osa	-9581
▁(24	-9582
▁organizations	-9583
▁excit	-9584
▁views	-9585
▁hmg	-9586
odynamics	-9587
otoxin	-9588
organic	-9589
▁timely	-9590
oea	-9591
▁anch	-9592
▁statement	-9593
▁tibial	-9594
▁responsiveness	-9595
hz	-9596
▁government	-9597
▁-3	-9598
▁asperg	-9599
rained	-9600
portive	-9601
▁autonomic	-9602
▁trajectories	-9603
02	-9604
▁autoantib	-9605
▁stresses	-9606
▁trace	-9607
ather	-9608
aid	-9609
▁claims	-9610
▁anaerobic	-9611
▁reag	-9612
▁caffe	-9613
▁tach	-9614
ucas	-9615
▁imbal	-9616
▁evoked	-9617
untary	-9618
▁verbal	-9619
▁reprogram	-9620
lla	-9621
▁phenolic	-9622
▁indian	-9623
acial	-9624
▁luciferase	-9625
▁cxcr	-9626
armac	-9627
ocket	-9628
▁electros	-9629
▁proliferative	-9630
▁filter	-9631
▁sampled	-9632
▁covariates	-9633
lactam	-9634
▁testicular	-9635
▁committee	-9636
▁penetration	-9637
▁transferred	-9638
▁gross	-9639
▁portion	-9640
ience	-9641
▁laboratories	-9642
mus	-9643
▁latency	-9644
▁je	-9645
▁constitute	-9646
▁ago	-9647
onds	-9648
549	-9649
▁sensors	-9650
▁labeled	-9651
lipidemia	-9652
▁proteomics	-9653
▁ligation	-9654
▁hind	-9655
▁adiponectin	-9656
entary	-9657
mn	-9658
pow	-9659
▁12,	-9660
▁nephropathy	-9661
▁mitogen	-9662
▁scheme	-9663
omerase	-9664
▁resemb	-9665
▁pluripotent	-9666
▁hplc	-9667
▁evidenced	-9668
▁intellec	-9669
▁hour	-9670
paren	-9671
▁rhiz	-9672
▁played	-9673
▁hyal	-9674
▁plasmodium	-9675
▁electrophoresis	-9676
▁digestion	-9677
▁river	-9678
▁expectations	-9679
▁latin	-9680
omb	-9681
▁symmet	-9682
▁prescribing	-9683
reperfusion	-9684
regulating	-9685
▁suppressing	-9686
▁2012,	-9687
▁trunc	-9688
▁forens	-9689
.3%,	-9690
▁updated	-9691
jug	-9692
was	-9693
▁hormonal	-9694
▁rated	-9695
henyl	-9696
▁chemo	-9697
▁tubular	-9698
ão	-9699
▁ef	-9700
▁consumed	-9701
fib	-9702
▁dd	-9703
▁strongest	-9704
▁efflux	-9705
vegf	-9706
▁designs	-9707
▁unchanged	-9708
▁antidepressant	-9709
▁postmenopausal	-9710
▁minimize	-9711
▁3.7	-9712
▁null	-9713
▁shell	-9714
▁meal	-9715
▁functionality	-9716
▁dismut	-9717
vd	-9718
stable	-9719
▁acceptance	-9720
actor	-9721
▁amygd	-9722
heric	-9723
▁motivation	-9724
▁ovary	-9725
▁nd	-9726
▁sports	-9727
-22	-9728
▁reductase	-9729
▁mediator	-9730
▁unde	-9731
▁urea	-9732
▁periodicals	-9733
tified	-9734
▁deploy	-9735
▁examines	-9736
▁rapamycin	-9737
▁cerebrospinal	-9738
▁resveratrol	-9739
▁upstream	-9740
verte	-9741
▁served	-9742
inge	-9743
▁folding	-9744
▁clock	-9745
ua	-9746
▁too	-9747
eded	-9748
oney	-9749
pic	-9750
▁sand	-9751
structured	-9752
▁incontinence	-9753
0.7	-9754
▁demands	-9755
exposed	-9756
▁hygi	-9757
ogenes	-9758
anes	-9759
sn	-9760
▁quantum	-9761
▁neuroendocrine	-9762
ifn	-9763
▁(22	-9764
▁interplay	-9765
▁disabilities	-9766
▁insufficiency	-9767
▁gn	-9768
▁pten	-9769
▁consultation	-9770
ections	-9771
▁bund	-9772
▁bax	-9773
▁triggers	-9774
▁mesh	-9775
▁proteome	-9776
bone	-9777
▁saturation	-9778
itors	-9779
200	-9780
▁mann	-9781
▁intended	-9782
▁drople	-9783
entially	-9784
▁sometimes	-9785
▁crude	-9786
▁insectic	-9787
force	-9788
▁representation	-9789
▁segmentation	-9790
▁chamber	-9791
▁transitions	-9792
▁chim	-9793
▁bayesian	-9794
▁bb	-9795
vastatin	-9796
▁neighb	-9797
▁relief	-9798
▁ko	-9799
▁subpop	-9800
▁rabbits	-9801
▁irre	-9802
divid	-9803
neys	-9804
▁leng	-9805
▁smad	-9806
▁(95	-9807
▁endoscopy	-9808
▁confounding	-9809
▁glial	-9810
▁osteogenic	-9811
▁canadi	-9812
▁otherwise	-9813
tof	-9814
▁ole	-9815
▁doub	-9816
▁ment	-9817
▁sera	-9818
▁conflict	-9819
▁ambulatory	-9820
pk	-9821
▁equally	-9822
▁somat	-9823
agnetic	-9824
▁scenario	-9825
▁ae	-9826
▁dimer	-9827
center	-9828
▁chemokine	-9829
▁habitat	-9830
▁occas	-9831
▁immunosorbent	-9832
depth	-9833
▁intellectual	-9834
nutrition	-9835
▁newborns	-9836
appropriate	-9837
▁smart	-9838
▁defining	-9839
▁papillary	-9840
▁endometriosis	-9841
ullary	-9842
▁motifs	-9843
omavirus	-9844
▁inferen	-9845
▁cdk	-9846
▁island	-9847
<0.05)	-9848
▁unders	-9849
▁weakness	-9850
▁interventional	-9851
ipl	-9852
▁running	-9853
▁saliva	-9854
▁stored	-9855
▁1:	-9856
icans	-9857
▁spent	-9858
▁varies	-9859
▁2017.	-9860
oreceptor	-9861
▁spanish	-9862
▁swim	-9863
▁htt	-9864
▁tendency	-9865
pb	-9866
▁sedation	-9867
▁paclitaxel	-9868
▁hydrogels	-9869
▁eighty	-9870
asts	-9871
ether	-9872
▁warfarin	-9873
▁intim	-9874
▁supplemented	-9875
inos	-9876
arial	-9877
aland	-9878
eptides	-9879
uled	-9880
▁allogeneic	-9881
▁contexts	-9882
▁numerical	-9883
child	-9884
ognitive	-9885
omatous	-9886
▁phantom	-9887
▁pas	-9888
▁neurodevelop	-9889
▁analogue	-9890
▁dismutase	-9891
▁mdr	-9892
▁drivers	-9893
▁inherent	-9894
▁recognize	-9895
olecule	-9896
▁cardiopulmonary	-9897
▁lm	-9898
▁enough	-9899
▁slic	-9900
▁gingival	-9901
gt	-9902
oreg	-9903
▁envelop	-9904
odontic	-9905
aved	-9906
.7%,	-9907
▁acupuncture	-9908
▁immig	-9909
▁osteosarcoma	-9910
201	-9911
selective	-9912
transcri	-9913
▁accumulated	-9914
▁(21	-9915
▁vast	-9916
▁segreg	-9917
▁curriculum	-9918
▁supportive	-9919
icac	-9920
▁pleural	-9921
▁integ	-9922
▁apoe	-9923
▁tea	-9924
▁dermal	-9925
▁serop	-9926
0.5	-9927
▁kras	-9928
ensitivity	-9929
▁dimension	-9930
▁hallmark	-9931
▁anticoagulation	-9932
fed	-9933
▁surprisingly	-9934
▁(4)	-9935
▁2011.	-9936
▁criterion	-9937
▁facilitating	-9938
▁modify	-9939
▁mutated	-9940
trum	-9941
▁maize	-9942
▁vp	-9943
▁auton	-9944
platelet	-9945
▁jak	-9946
▁resili	-9947
▁gad	-9948
▁gave	-9949
▁named	-9950
▁leakage	-9951
▁favour	-9952
alcoholic	-9953
inery	-9954
▁aph	-9955
▁lymphatic	-9956
▁compan	-9957
▁arising	-9958
▁peroxidase	-9959
omyel	-9960
▁arsenic	-9961
otemporal	-9962
olus	-9963
▁specimen	-9964
hypert	-9965
▁scattering	-9966
▁avoidance	-9967
▁personalized	-9968
▁bench	-9969
▁intense	-9970
▁acr	-9971
energy	-9972
▁analgesia	-9973
.0%)	-9974
rite	-9975
▁forensic	-9976
▁formula	-9977
▁calcification	-9978
▁hi	-9979
mtor	-9980
▁poli	-9981
▁opinion	-9982
▁mets	-9983
▁think	-9984
▁legal	-9985
▁mononuclear	-9986
▁employing	-9987
advant	-9988
eties	-9989
value	-9990
▁interpret	-9991
▁genital	-9992
▁biodegrad	-9993
▁ige	-9994
▁ventricle	-9995
▁continues	-9996
▁1%	-9997
▁ff	-9998
▁ischa	-9999
coup	-10000
▁summarizes	-10001
▁experiencing	-10002
▁zealand	-10003
ups	-10004
growth	-10005
forming	-10006
iosis	-10007
▁heme	-10008
▁dexamethasone	-10009
random	-10010
▁adolescence	-10011
▁spi	-10012
▁dcs	-10013
dia	-10014
▁enroll	-10015
▁cla	-10016
egfr	-10017
0).	-10018
dex	-10019
she	-10020
▁proof	-10021
▁neuropathic	-10022
▁pals	-10023
▁waist	-10024
mass	-10025
phrine	-10026
▁maxillary	-10027
▁integrating	-10028
shaped	-10029
▁acoustic	-10030
▁infertility	-10031
xia	-10032
▁exception	-10033
▁3.8	-10034
gment	-10035
▁mtt	-10036
▁abolished	-10037
ynaptic	-10038
sv	-10039
graduate	-10040
ostomy	-10041
▁italian	-10042
▁powder	-10043
▁reaching	-10044
vacizumab	-10045
▁confounders	-10046
▁refr	-10047
▁rabbit	-10048
fol	-10049
▁priority	-10050
▁inducible	-10051
▁phosphatidyl	-10052
itten	-10053
▁cysts	-10054
▁responsive	-10055
▁explicit	-10056
▁constraints	-10057
ocs	-10058
▁physicochemical	-10059
atric	-10060
▁century	-10061
▁fell	-10062
▁caucas	-10063
0;	-10064
item	-10065
▁submitted	-10066
▁(23	-10067
tification	-10068
▁spot	-10069
▁custom	-10070
▁foreign	-10071
inance	-10072
▁(+	-10073
-1.0	-10074
ografts	-10075
oll	-10076
▁nutrients	-10077
▁attributable	-10078
nac	-10079
▁attend	-10080
▁lysine	-10081
▁midw	-10082
▁psychosis	-10083
▁replic	-10084
▁recipient	-10085
entan	-10086
linking	-10087
epithelial	-10088
▁silica	-10089
ploid	-10090
azine	-10091
▁polyp	-10092
▁microflu	-10093
▁contribut	-10094
▁lessons	-10095
▁journal	-10096
▁corticosteroids	-10097
▁4.0	-10098
▁presum	-10099
performance	-10100
▁ingred	-10101
▁teac	-10102
recipitation	-10103
▁signatures	-10104
▁:	-10105
▁revealing	-10106
▁kidneys	-10107
71	-10108
▁erythemat	-10109
gic	-10110
▁cav	-10111
▁elect	-10112
▁ulcers	-10113
hepatic	-10114
▁efficac	-10115
▁percenti	-10116
▁hemisp	-10117
optimal	-10118
▁unaffected	-10119
▁lp	-10120
▁avian	-10121
▁vulnerability	-10122
-24	-10123
▁herbal	-10124
▁tran	-10125
▁lon	-10126
uing	-10127
▁param	-10128
▁ethnicity	-10129
nh	-10130
static	-10131
▁scarce	-10132
▁chaper	-10133
sy	-10134
▁resin	-10135
arts	-10136
▁nom	-10137
uzumab	-10138
inflammation	-10139
itron	-10140
▁disadvant	-10141
-1.1	-10142
▁biofilms	-10143
▁initiative	-10144
▁concordance	-10145
▁preeclampsia	-10146
▁sympathetic	-10147
8.	-10148
▁window	-10149
▁vte	-10150
▁elongation	-10151
inergic	-10152
▁moderately	-10153
▁cesarean	-10154
▁ageing	-10155
."	-10156
▁intubation	-10157
▁calculation	-10158
▁ureth	-10159
▁vanc	-10160
produc	-10161
▁chart	-10162
▁scored	-10163
▁cdc	-10164
▁ascer	-10165
▁mism	-10166
▁elusive	-10167
▁creating	-10168
▁stomach	-10169
▁agricultural	-10170
▁losses	-10171
condition	-10172
(3)	-10173
▁frailty	-10174
inescence	-10175
▁quantitatively	-10176
▁enteric	-10177
tip	-10178
▁racial	-10179
mac	-10180
▁minority	-10181
▁joints	-10182
▁enanti	-10183
tus	-10184
▁item	-10185
▁fragmentation	-10186
▁dopaminergic	-10187
▁fire	-10188
▁interrup	-10189
▁(30	-10190
▁iu	-10191
catheter	-10192
▁conditional	-10193
▁aids	-10194
▁sociod	-10195
only	-10196
well	-10197
▁acs	-10198
parts	-10199
▁horses	-10200
▁matric	-10201
▁reflecting	-10202
▁diagnose	-10203
dec	-10204
▁sensitization	-10205
ulsive	-10206
▁gyrus	-10207
▁behind	-10208
induc	-10209
▁incision	-10210
▁inconsistent	-10211
▁geographical	-10212
▁scope	-10213
tituted	-10214
▁fel	-10215
▁cerevis	-10216
▁8,	-10217
▁encodes	-10218
▁stret	-10219
ris	-10220
ura	-10221
▁teams	-10222
acyl	-10223
▁episode	-10224
▁equilibrium	-10225
ref	-10226
mesenchymal	-10227
omegal	-10228
irable	-10229
▁equations	-10230
bv	-10231
▁plaques	-10232
fen	-10233
plements	-10234
▁ambi	-10235
ilis	-10236
▁italy	-10237
▁coast	-10238
▁becomes	-10239
▁glycemic	-10240
gm	-10241
▁king	-10242
▁sedentary	-10243
▁appropri	-10244
▁placenta	-10245
▁biologically	-10246
▁exerts	-10247
gar	-10248
▁rn	-10249
▁(28	-10250
▁2003	-10251
▁binary	-10252
▁retrieval	-10253
▁transfected	-10254
▁tailored	-10255
▁mouth	-10256
▁linking	-10257
▁cytology	-10258
▁centr	-10259
▁recons	-10260
▁cerevisiae	-10261
tron	-10262
4(+)	-10263
▁asymmetric	-10264
thir	-10265
glial	-10266
▁discharged	-10267
▁hemorrhagic	-10268
ceptual	-10269
/3	-10270
afenib	-10271
▁ti	-10272
▁rom	-10273
ifier	-10274
▁trimester	-10275
▁eleven	-10276
▁oxygenation	-10277
▁ionic	-10278
▁erg	-10279
▁intraocular	-10280
iforn	-10281
▁district	-10282
▁canadian	-10283
▁discontinuation	-10284
▁cranial	-10285
▁neighbor	-10286
▁duoden	-10287
compass	-10288
▁sharing	-10289
▁correctly	-10290
sulf	-10291
▁aptam	-10292
▁4.2	-10293
▁gast	-10294
▁classic	-10295
▁irres	-10296
▁trees	-10297
ciparum	-10298
®)	-10299
▁1.00	-10300
▁optimum	-10301
nexin	-10302
4.7	-10303
▁frame	-10304
▁board	-10305
▁bevacizumab	-10306
hu	-10307
▁leadership	-10308
▁wear	-10309
chool	-10310
▁detrim	-10311
▁crohn	-10312
▁0.001	-10313
▁anis	-10314
hom	-10315
▁15%	-10316
▁tradition	-10317
▁links	-10318
▁capsule	-10319
terase	-10320
▁alters	-10321
▁micron	-10322
/-	-10323
ovir	-10324
▁axonal	-10325
gland	-10326
▁geriatric	-10327
▁conditioning	-10328
▁coil	-10329
▁neglec	-10330
igenous	-10331
(+	-10332
aker	-10333
▁hypotheses	-10334
▁operated	-10335
▁abnorm	-10336
▁albicans	-10337
score	-10338
▁spir	-10339
▁atomic	-10340
▁screw	-10341
▁hydroxyl	-10342
▁ribosomal	-10343
▁reflex	-10344
▁applicability	-10345
▁bioinformatics	-10346
▁hered	-10347
▁resilience	-10348
omous	-10349
▁voice	-10350
9-	-10351
omies	-10352
▁.05).	-10353
oxif	-10354
▁shr	-10355
▁manag	-10356
▁sporadic	-10357
▁disturbance	-10358
▁globally	-10359
▁equipment	-10360
▁traine	-10361
▁desired	-10362
▁jnk	-10363
birth	-10364
▁determinant	-10365
52	-10366
nb	-10367
▁gray	-10368
▁lh	-10369
▁phenyl	-10370
▁neuroimaging	-10371
▁arise	-10372
▁falciparum	-10373
assess	-10374
oselec	-10375
▁switching	-10376
▁approval	-10377
▁liposomes	-10378
▁anthropometric	-10379
ball	-10380
▁dan	-10381
bumin	-10382
▁transcriptom	-10383
pine	-10384
▁cerebro	-10385
▁quantity	-10386
urnal	-10387
▁wood	-10388
▁obtaining	-10389
▁subclinical	-10390
▁hm	-10391
▁tetra	-10392
terious	-10393
▁stents	-10394
ocor	-10395
▁constituents	-10396
nan	-10397
post	-10398
istance	-10399
0.6	-10400
▁%),	-10401
▁larval	-10402
▁psychiat	-10403
ophysical	-10404
▁osm	-10405
obacillus	-10406
▁san	-10407
▁bonds	-10408
cox	-10409
▁sucrose	-10410
▁friend	-10411
▁buc	-10412
▁codes	-10413
▁allocated	-10414
yel	-10415
▁continuously	-10416
▁winter	-10417
▁canonical	-10418
▁adoption	-10419
▁75%	-10420
▁oh	-10421
oreal	-10422
▁attributes	-10423
▁ald	-10424
opathies	-10425
▁amygdala	-10426
▁ambient	-10427
▁pressures	-10428
▁clonal	-10429
▁tong	-10430
▁inactive	-10431
sir	-10432
▁cpg	-10433
▁interfering	-10434
translational	-10435
▁precursors	-10436
▁bari	-10437
▁fungus	-10438
▁(26	-10439
phosphor	-10440
▁interfac	-10441
▁build	-10442
▁grading	-10443
▁specialist	-10444
.1%,	-10445
▁cytosolic	-10446
.6%,	-10447
▁arc	-10448
▁nox	-10449
▁spind	-10450
ycardia	-10451
▁frozen	-10452
▁grass	-10453
▁histopathology	-10454
▁physi	-10455
▁conscious	-10456
▁procedural	-10457
▁steroids	-10458
▁mixtures	-10459
▁hyperglycemia	-10460
▁taxa	-10461
▁learned	-10462
▁counterparts	-10463
aver	-10464
randed	-10465
▁france	-10466
▁serves	-10467
erate	-10468
▁employment	-10469
▁reflux	-10470
.4%,	-10471
▁diagnosing	-10472
▁births	-10473
▁biomechanical	-10474
▁yellow	-10475
▁editing	-10476
het	-10477
▁microtubule	-10478
▁scr	-10479
▁180	-10480
▁nemat	-10481
▁contacts	-10482
▁expenditure	-10483
▁checkpoint	-10484
hcv	-10485
ave	-10486
▁promoters	-10487
▁junc	-10488
-1.2	-10489
▁moving	-10490
▁nitrate	-10491
▁biogenesis	-10492
rapy	-10493
▁viro	-10494
▁responders	-10495
▁palsy	-10496
▁accessible	-10497
ham	-10498
▁faecal	-10499
▁similarities	-10500
▁eventually	-10501
wards	-10502
▁individually	-10503
▁designing	-10504
7.	-10505
▁(201	-10506
▁irrespective	-10507
▁3.	-10508
▁epiderm	-10509
-/-	-10510
▁entity	-10511
▁polymerization	-10512
▁cycling	-10513
▁allocation	-10514
rague	-10515
▁atmosp	-10516
▁pollut	-10517
▁harmful	-10518
▁glycol	-10519
▁unable	-10520
▁machinery	-10521
▁raman	-10522
labeled	-10523
▁chapter	-10524
9.	-10525
ania	-10526
▁embedded	-10527
▁dissolution	-10528
▁departments	-10529
▁germline	-10530
▁augmented	-10531
ero	-10532
tise	-10533
▁repetitive	-10534
gas	-10535
▁personnel	-10536
▁adam	-10537
▁graphene	-10538
▁electrosp	-10539
-0.8	-10540
▁querc	-10541
▁iodine	-10542
▁cod	-10543
)2	-10544
▁insects	-10545
▁adipocytes	-10546
▁titanium	-10547
▁ninety	-10548
igibility	-10549
asic	-10550
prop	-10551
inhibit	-10552
▁connection	-10553
▁horizontal	-10554
▁scd	-10555
▁carboxyl	-10556
▁exosomes	-10557
hv	-10558
▁elegans	-10559
ituximab	-10560
▁clinician	-10561
.8%,	-10562
▁plane	-10563
▁californ	-10564
▁rodent	-10565
▁0.01),	-10566
▁gtp	-10567
uric	-10568
tail	-10569
▁amput	-10570
roscopy	-10571
74	-10572
wley	-10573
▁abortion	-10574
▁fmri	-10575
▁atl	-10576
▁poison	-10577
bow	-10578
▁lean	-10579
▁embolization	-10580
▁fruits	-10581
▁ut	-10582
▁van	-10583
▁vestib	-10584
▁unexpl	-10585
▁objects	-10586
▁ebv	-10587
genesis	-10588
▁prompt	-10589
dii	-10590
▁.001)	-10591
▁discrete	-10592
▁template	-10593
▁surrogate	-10594
▁debate	-10595
▁definitions	-10596
▁habits	-10597
logical	-10598
▁mitotic	-10599
▁intraperitoneal	-10600
▁cosme	-10601
▁pcs	-10602
▁3.9	-10603
▁joh	-10604
net	-10605
ograms	-10606
▁principle	-10607
interquartile	-10608
▁cone	-10609
▁copies	-10610
orac	-10611
▁unfav	-10612
▁amplified	-10613
▁magnesium	-10614
▁feeling	-10615
integr	-10616
▁module	-10617
▁acetylation	-10618
▁built	-10619
▁incremental	-10620
fall	-10621
▁keep	-10622
▁intell	-10623
▁trabec	-10624
▁endoc	-10625
▁reflects	-10626
▁endothelium	-10627
ranean	-10628
▁peroxide	-10629
▁rd	-10630
spe	-10631
tide	-10632
receptor	-10633
ibilities	-10634
kinase	-10635
×10	-10636
vhd	-10637
▁fum	-10638
▁chemoradi	-10639
▁sustainable	-10640
▁contaminated	-10641
▁kda	-10642
gh	-10643
▁striking	-10644
species	-10645
unctiv	-10646
▁oocyte	-10647
▁sag	-10648
▁written	-10649
olet	-10650
▁word	-10651
▁hrqol	-10652
▁verify	-10653
▁believe	-10654
▁dissociation	-10655
isc	-10656
▁circuits	-10657
▁immunocom	-10658
vin	-10659
▁icd	-10660
▁ophthalm	-10661
▁supplements	-10662
▁artif	-10663
-36	-10664
▁dysph	-10665
▁remov	-10666
centered	-10667
▁sprague	-10668
▁(27	-10669
▁orbital	-10670
ubin	-10671
▁courses	-10672
▁damaged	-10673
▁platforms	-10674
.2%,	-10675
▁engage	-10676
cognitive	-10677
otransferase	-10678
▁fm	-10679
▁nail	-10680
romyces	-10681
tir	-10682
▁prone	-10683
▁rigid	-10684
istrib	-10685
▁inappropriate	-10686
▁positron	-10687
▁cmv	-10688
▁rcc	-10689
▁trust	-10690
icc	-10691
▁roc	-10692
▁appra	-10693
crc	-10694
sem	-10695
▁hereditary	-10696
▁rely	-10697
inous	-10698
▁ubiquitous	-10699
▁polarization	-10700
▁kind	-10701
▁assumed	-10702
▁lr	-10703
▁pep	-10704
▁deleterious	-10705
▁periodontitis	-10706
▁interfe	-10707
▁bulk	-10708
▁niche	-10709
▁nodal	-10710
▁stone	-10711
▁nerves	-10712
ethylation	-10713
▁psychometric	-10714
▁vill	-10715
side	-10716
▁flag	-10717
▁cement	-10718
▁defective	-10719
ulator	-10720
▁cough	-10721
rolim	-10722
▁fulfill	-10723
/100	-10724
meas	-10725
▁250	-10726
▁soybean	-10727
▁illum	-10728
0),	-10729
omide	-10730
▁sphing	-10731
▁parench	-10732
▁recessive	-10733
▁kappa	-10734
▁grades	-10735
ionine	-10736
▁acyl	-10737
▁amongst	-10738
▁hydroxy	-10739
▁haplotype	-10740
▁ganglion	-10741
▁reproducible	-10742
▁semen	-10743
imid	-10744
▁3'	-10745
<0.001),	-10746
▁connections	-10747
rolimus	-10748
ordered	-10749
▁fluids	-10750
onit	-10751
▁5.0	-10752
▁clostr	-10753
ortem	-10754
▁overlapping	-10755
local	-10756
▁augmentation	-10757
▁repress	-10758
▁detrimental	-10759
▁termed	-10760
▁recommendation	-10761
eper	-10762
▁electrocardi	-10763
▁phil	-10764
▁typh	-10765
▁spondyl	-10766
▁chip	-10767
▁excitation	-10768
▁telomere	-10769
▁ea	-10770
qp	-10771
ju	-10772
enteric	-10773
▁caud	-10774
▁glp	-10775
otactic	-10776
▁polysaccharide	-10777
▁foss	-10778
600	-10779
▁mrsa	-10780
▁trunk	-10781
▁25(	-10782
▁buffer	-10783
▁cannabis	-10784
▁31,	-10785
▁transplanted	-10786
▁soils	-10787
▁fec	-10788
▁challenged	-10789
▁respiration	-10790
process	-10791
▁workplace	-10792
▁infarct	-10793
.9%,	-10794
ylic	-10795
▁disrupted	-10796
▁statins	-10797
▁ai	-10798
oint	-10799
▁conjugated	-10800
eption	-10801
▁colonoscopy	-10802
ourse	-10803
estab	-10804
▁stigma	-10805
▁preparations	-10806
82	-10807
▁exhibiting	-10808
▁flat	-10809
▁25-	-10810
▁pcos	-10811
▁contrary	-10812
▁lymphoid	-10813
▁multicent	-10814
standard	-10815
cost	-10816
▁resected	-10817
▁aquatic	-10818
▁encompass	-10819
▁varic	-10820
▁(±	-10821
▁moi	-10822
▁msc	-10823
▁dysp	-10824
▁4.1	-10825
▁relig	-10826
▁returned	-10827
▁rif	-10828
olecules	-10829
▁blinded	-10830
▁toxicities	-10831
omiting	-10832
▁accounts	-10833
▁reprogramming	-10834
▁slc	-10835
▁genera	-10836
▁surgically	-10837
▁til	-10838
▁fs	-10839
▁arginine	-10840
▁electrodes	-10841
tidine	-10842
▁spring	-10843
▁hygiene	-10844
muc	-10845
sod	-10846
▁visc	-10847
▁willing	-10848
▁gsh	-10849
bw	-10850
ees	-10851
rio	-10852
▁embolism	-10853
▁analogs	-10854
▁pari	-10855
▁homology	-10856
▁codon	-10857
▁aller	-10858
▁familiar	-10859
▁etc	-10860
▁matrices	-10861
▁mun	-10862
▁relies	-10863
▁vancomycin	-10864
93	-10865
▁captured	-10866
▁ili	-10867
▁relatives	-10868
▁regarded	-10869
▁pharmacists	-10870
▁grouped	-10871
▁characterised	-10872
▁actively	-10873
racycl	-10874
▁allograft	-10875
▁stimulating	-10876
▁allerg	-10877
▁assembl	-10878
▁compromised	-10879
▁mediter	-10880
▁hypothalamic	-10881
▁match	-10882
▁thous	-10883
ali	-10884
qpcr	-10885
▁biologic	-10886
▁underestim	-10887
▁fluctuations	-10888
▁surgeries	-10889
▁compartments	-10890
▁coinc	-10891
▁presentations	-10892
omically	-10893
adap	-10894
▁outl	-10895
▁%).	-10896
▁hyste	-10897
profession	-10898
▁iop	-10899
▁diffraction	-10900
▁wider	-10901
optera	-10902
▁nause	-10903
isa	-10904
▁quin	-10905
▁suffered	-10906
▁triglyceride	-10907
▁weights	-10908
300	-10909
▁thrombin	-10910
▁fertilization	-10911
▁hernia	-10912
▁attempted	-10913
0.4	-10914
oste	-10915
trin	-10916
▁split	-10917
sover	-10918
▁mds	-10919
▁ingestion	-10920
▁voluntary	-10921
▁configuration	-10922
▁origins	-10923
▁held	-10924
::	-10925
▁ecm	-10926
opharyngeal	-10927
▁consolid	-10928
▁preferentially	-10929
▁manifestation	-10930
identif	-10931
▁nausea	-10932
oprecipitation	-10933
myc	-10934
▁affective	-10935
▁fruct	-10936
apine	-10937
observer	-10938
▁curren	-10939
▁perceptual	-10940
▁crow	-10941
▁rain	-10942
▁fractional	-10943
▁homogeneous	-10944
tition	-10945
▁platin	-10946
▁ductal	-10947
cmv	-10948
ulfide	-10949
mias	-10950
▁salvage	-10951
▁crt	-10952
▁immature	-10953
▁spik	-10954
10)	-10955
ellum	-10956
▁rhod	-10957
molecular	-10958
▁charged	-10959
ationally	-10960
▁fig	-10961
▁telephone	-10962
▁secretory	-10963
charomyces	-10964
ider	-10965
▁geometry	-10966
pla	-10967
assembly	-10968
▁lifes	-10969
▁rough	-10970
reci	-10971
athyroid	-10972
▁sav	-10973
▁emissions	-10974
▁inflammasome	-10975
light	-10976
▁rituximab	-10977
▁broader	-10978
nam	-10979
▁trypan	-10980
▁nonlinear	-10981
regular	-10982
▁tomato	-10983
▁-0.0	-10984
ofol	-10985
▁han	-10986
▁vin	-10987
americ	-10988
▁arrange	-10989
-25	-10990
▁hfd	-10991
▁dead	-10992
irubin	-10993
holders	-10994
▁epileptic	-10995
▁monthly	-10996
msc	-10997
olone	-10998
▁triglycerides	-10999
phot	-11000
▁dense	-11001
▁margins	-11002
ardial	-11003
▁proteasome	-11004
84	-11005
▁arb	-11006
▁osteoclast	-11007
▁var	-11008
dimethyl	-11009
▁cin	-11010
▁reper	-11011
▁narrative	-11012
▁sati	-11013
ferentiated	-11014
▁trade	-11015
▁drawn	-11016
▁england	-11017
▁flexion	-11018
pus	-11019
otopic	-11020
=3	-11021
▁sexually	-11022
▁reversal	-11023
▁operational	-11024
▁degenerative	-11025
▁rodents	-11026
▁intermedi	-11027
▁neuromuscular	-11028
utin	-11029
icidal	-11030
▁medicaid	-11031
mann	-11032
▁clones	-11033
olism	-11034
uretic	-11035
angiogenic	-11036
▁ionization	-11037
▁spain	-11038
▁undet	-11039
ozoa	-11040
▁generic	-11041
earson	-11042
▁delir	-11043
▁subcellular	-11044
core	-11045
▁effusion	-11046
.5,	-11047
▁appreci	-11048
▁destruction	-11049
ventricular	-11050
▁traditionally	-11051
▁lncrnas	-11052
▁cholec	-11053
▁glucocorticoid	-11054
▁sector	-11055
▁ast	-11056
▁conjunction	-11057
kk	-11058
▁pulp	-11059
▁bacteri	-11060
lectomy	-11061
▁choices	-11062
ita	-11063
molecule	-11064
▁polymeric	-11065
▁prosthesis	-11066
▁structurally	-11067
▁erythematosus	-11068
▁mutagenesis	-11069
▁iga	-11070
▁organizational	-11071
professional	-11072
▁gps	-11073
▁dedicated	-11074
▁microscope	-11075
▁apart	-11076
▁laryngeal	-11077
▁mec	-11078
▁surveyed	-11079
uterine	-11080
-34	-11081
▁comfort	-11082
odend	-11083
ozo	-11084
▁coordinated	-11085
▁broadly	-11086
coated	-11087
▁revised	-11088
keys	-11089
▁radiographs	-11090
adren	-11091
aments	-11092
▁webs	-11093
▁carbap	-11094
▁hearts	-11095
▁positioning	-11096
udge	-11097
▁exha	-11098
▁precipitation	-11099
fit	-11100
avi	-11101
months	-11102
▁tongue	-11103
▁catalase	-11104
▁2%	-11105
olipid	-11106
▁porous	-11107
▁integrative	-11108
▁platinum	-11109
▁inos	-11110
trig	-11111
▁cyclo	-11112
db	-11113
0%),	-11114
▁accompl	-11115
▁ich	-11116
▁prove	-11117
▁meg	-11118
▁malformations	-11119
▁.01	-11120
block	-11121
]:	-11122
▁moiety	-11123
hand	-11124
▁transcatheter	-11125
▁qt	-11126
83	-11127
paign	-11128
▁chickens	-11129
▁topics	-11130
▁immobilized	-11131
▁2002	-11132
square	-11133
▁fair	-11134
ordant	-11135
coupled	-11136
romycin	-11137
sus	-11138
sue	-11139
▁papillomavirus	-11140
analy	-11141
▁tens	-11142
▁eradication	-11143
acute	-11144
▁difficile	-11145
▁assistance	-11146
onc	-11147
▁(0.0	-11148
▁indigenous	-11149
tery	-11150
▁peroxidation	-11151
▁differentiating	-11152
▁gbm	-11153
rb	-11154
▁tan	-11155
▁uncover	-11156
vp	-11157
▁nlrp	-11158
▁imper	-11159
▁phage	-11160
▁restore	-11161
▁fabricated	-11162
osidase	-11163
▁extinc	-11164
odic	-11165
▁taste	-11166
▁km	-11167
▁biosynthetic	-11168
worm	-11169
orient	-11170
▁thrombus	-11171
▁antenatal	-11172
▁cerebrovascular	-11173
▁wm	-11174
▁nanocom	-11175
▁encephalopathy	-11176
aban	-11177
cataly	-11178
▁stakeholders	-11179
sided	-11180
▁exec	-11181
coa	-11182
▁inputs	-11183
house	-11184
▁quercetin	-11185
▁(29	-11186
▁neutralizing	-11187
▁mediterranean	-11188
▁genotyped	-11189
▁recycl	-11190
▁fetuses	-11191
▁4.3	-11192
▁delirium	-11193
▁capabilities	-11194
-4,	-11195
paramet	-11196
▁driver	-11197
▁imbalance	-11198
▁cra	-11199
▁suspension	-11200
pathy	-11201
▁handling	-11202
▁steatosis	-11203
▁hypother	-11204
box	-11205
▁spher	-11206
▁today	-11207
▁eu	-11208
oprote	-11209
mmp	-11210
▁sial	-11211
▁oce	-11212
▁twin	-11213
▁adenoma	-11214
▁trajectory	-11215
▁attached	-11216
▁hct	-11217
mium	-11218
▁cholangi	-11219
▁relating	-11220
▁conditioned	-11221
ried	-11222
inder	-11223
▁competing	-11224
▁delays	-11225
eless	-11226
▁hope	-11227
▁breath	-11228
retin	-11229
mortem	-11230
▁campaign	-11231
tom	-11232
both	-11233
▁caregiver	-11234
▁currents	-11235
▁integral	-11236
▁choroidal	-11237
carbon	-11238
▁microstruct	-11239
▁chlam	-11240
inates	-11241
61	-11242
▁conjugates	-11243
▁california	-11244
▁chance	-11245
▁tolerability	-11246
▁rescu	-11247
▁faces	-11248
▁spontaneously	-11249
▁differently	-11250
▁discussions	-11251
▁suture	-11252
▁unstable	-11253
▁expanding	-11254
▁divergence	-11255
▁toxins	-11256
▁hela	-11257
▁qpcr	-11258
▁neighborhood	-11259
▁flavonoids	-11260
vc	-11261
▁orthop	-11262
obacterial	-11263
▁epitopes	-11264
inator	-11265
▁waves	-11266
bu	-11267
▁thematic	-11268
oting	-11269
▁vomiting	-11270
▁sciences	-11271
▁microfluidic	-11272
volume	-11273
▁underlie	-11274
▁complaints	-11275
▁unres	-11276
▁101	-11277
-1.3	-11278
▁stool	-11279
▁master	-11280
▁swine	-11281
dase	-11282
ster	-11283
ielding	-11284
ovial	-11285
▁distances	-11286
management	-11287
▁4)	-11288
sam	-11289
▁cip	-11290
▁worsening	-11291
▁neovascular	-11292
▁alloster	-11293
ashion	-11294
▁consumers	-11295
▁envelope	-11296
izer	-11297
▁caffeine	-11298
▁islet	-11299
▁follicle	-11300
▁abrog	-11301
▁confirming	-11302
▁contextual	-11303
sim	-11304
▁catech	-11305
▁gsk	-11306
▁repeats	-11307
▁aspergillus	-11308
▁plex	-11309
▁conjugate	-11310
host	-11311
▁igm	-11312
urane	-11313
ocyst	-11314
▁summer	-11315
▁oscillations	-11316
▁merc	-11317
▁veterinary	-11318
severe	-11319
▁000	-11320
▁lncrna	-11321
▁(33	-11322
▁alanine	-11323
▁transc	-11324
▁picture	-11325
▁efficacious	-11326
▁zero	-11327
▁lysosomal	-11328
asal	-11329
▁proce	-11330
wing	-11331
▁incubated	-11332
▁interactive	-11333
▁micelles	-11334
iton	-11335
▁rules	-11336
▁adipos	-11337
oprost	-11338
kt	-11339
▁invest	-11340
▁copo	-11341
▁genomics	-11342
onymous	-11343
▁interviewed	-11344
xual	-11345
blastoma	-11346
▁helps	-11347
▁discriminate	-11348
▁nether	-11349
▁fifteen	-11350
▁lumen	-11351
▁administrative	-11352
▁normally	-11353
94	-11354
biotic	-11355
▁suffer	-11356
antit	-11357
▁quite	-11358
▁utilis	-11359
▁2010.	-11360
circ	-11361
vitamin	-11362
pecific	-11363
▁nanofib	-11364
fm	-11365
▁arri	-11366
▁fashion	-11367
▁histologically	-11368
▁atopic	-11369
▁striatum	-11370
relin	-11371
ofacial	-11372
▁sport	-11373
▁reserve	-11374
▁peroxis	-11375
▁coated	-11376
▁nmol	-11377
▁luminal	-11378
▁2001	-11379
▁oxidized	-11380
▁npc	-11381
▁eros	-11382
▁americans	-11383
pts	-11384
yrin	-11385
▁adc	-11386
-0	-11387
▁office	-11388
▁pak	-11389
▁multimodal	-11390
▁tl	-11391
▁propofol	-11392
▁lesser	-11393
glob	-11394
lyl	-11395
urrences	-11396
orable	-11397
▁masses	-11398
iop	-11399
pub	-11400
▁initiate	-11401
▁limbs	-11402
▁confirmation	-11403
▁preoperatively	-11404
▁beds	-11405
room	-11406
▁literacy	-11407
▁uve	-11408
▁modules	-11409
transfer	-11410
▁cool	-11411
▁spindle	-11412
▁waters	-11413
▁urg	-11414
erving	-11415
ptions	-11416
▁1.01	-11417
imp	-11418
▁giving	-11419
▁impairs	-11420
▁thromboembolism	-11421
▁decay	-11422
termin	-11423
▁immobilization	-11424
▁ebola	-11425
▁netherlands	-11426
▁suicidal	-11427
▁altering	-11428
▁noncoding	-11429
0.3	-11430
▁adiposity	-11431
▁follicles	-11432
hpv	-11433
▁covering	-11434
ocr	-11435
▁inserted	-11436
(2+	-11437
▁folate	-11438
sensitivity	-11439
oce	-11440
▁exerted	-11441
▁advice	-11442
▁pw	-11443
utum	-11444
▁proximity	-11445
▁evolving	-11446
-1).	-11447
▁summarized	-11448
▁fourier	-11449
▁accordance	-11450
stranded	-11451
▁pyro	-11452
▁bariatric	-11453
▁dispersion	-11454
▁killing	-11455
▁percentile	-11456
dd	-11457
▁bus	-11458
mirnas	-11459
▁slower	-11460
▁septal	-11461
ifies	-11462
oelec	-11463
▁desc	-11464
dic	-11465
18)	-11466
▁vig	-11467
▁4.6	-11468
▁prioriti	-11469
▁parac	-11470
inea	-11471
inducible	-11472
▁volatile	-11473
born	-11474
polar	-11475
▁probable	-11476
▁densities	-11477
▁malon	-11478
▁organized	-11479
▁0.0001)	-11480
▁microglial	-11481
<0.01).	-11482
▁immunogenicity	-11483
▁integrate	-11484
mrs	-11485
▁filament	-11486
▁orthopa	-11487
▁carefully	-11488
aliana	-11489
▁differs	-11490
▁repression	-11491
saturated	-11492
▁malnutrition	-11493
▁regurg	-11494
gb	-11495
▁dt	-11496
chol	-11497
▁din	-11498
▁agreed	-11499
ociceptive	-11500
▁programmed	-11501
▁trypt	-11502
▁thaliana	-11503
▁sarcop	-11504
▁synovial	-11505
▁clostridium	-11506
enger	-11507
▁biotechn	-11508
▁conduction	-11509
world	-11510
▁kinem	-11511
▁opt	-11512
▁neoplasia	-11513
▁4.4	-11514
▁extinction	-11515
▁station	-11516
▁cytoskeleton	-11517
ker	-11518
▁circumst	-11519
▁crossover	-11520
▁abstract	-11521
▁biore	-11522
▁30,	-11523
ogether	-11524
▁brains	-11525
▁sludge	-11526
olim	-11527
ender	-11528
olerance	-11529
istan	-11530
▁diaph	-11531
▁missed	-11532
▁adequately	-11533
ponin	-11534
oracic	-11535
0%).	-11536
▁antioxidants	-11537
▁electric	-11538
▁gelatin	-11539
▁gastroenter	-11540
urc	-11541
▁creation	-11542
▁bup	-11543
▁aes	-11544
▁parietal	-11545
pendence	-11546
▁pneumococcal	-11547
opsy	-11548
▁cationic	-11549
odg	-11550
▁homes	-11551
▁agency	-11552
▁initiating	-11553
▁reconstructed	-11554
▁autoantibodies	-11555
▁overload	-11556
▁clot	-11557
▁asymmetry	-11558
▁estradiol	-11559
long	-11560
▁cleft	-11561
▁titers	-11562
personal	-11563
▁chr	-11564
acil	-11565
▁responding	-11566
▁searches	-11567
hypertensive	-11568
administered	-11569
illa	-11570
▁dh	-11571
/4	-11572
▁takes	-11573
band	-11574
▁bill	-11575
▁bim	-11576
df	-11577
▁macrom	-11578
opathology	-11579
120	-11580
▁safely	-11581
angle	-11582
-1.4	-11583
▁stain	-11584
▁irregular	-11585
▁transformed	-11586
▁discipl	-11587
▁eligibility	-11588
▁1990	-11589
▁perforation	-11590
▁lowering	-11591
▁interpreted	-11592
inting	-11593
normal	-11594
▁irrevers	-11595
▁5.5	-11596
▁pkc	-11597
razole	-11598
▁progenitors	-11599
formula	-11600
ayers	-11601
▁<0.00	-11602
▁partnership	-11603
asm	-11604
mill	-11605
carri	-11606
▁road	-11607
▁union	-11608
▁splen	-11609
▁gives	-11610
mer	-11611
▁broil	-11612
▁lives	-11613
otinib	-11614
▁schedule	-11615
▁conducting	-11616
significant	-11617
▁photosynthetic	-11618
amel	-11619
▁look	-11620
▁retrograde	-11621
▁cdna	-11622
▁lactobacillus	-11623
fox	-11624
▁acin	-11625
-40	-11626
urable	-11627
▁epidural	-11628
▁scc	-11629
▁straight	-11630
▁whil	-11631
recogn	-11632
▁mutational	-11633
▁cochlear	-11634
miss	-11635
▁modifi	-11636
▁neurogenesis	-11637
▁epitope	-11638
▁pathogenicity	-11639
agia	-11640
▁routes	-11641
aids	-11642
▁reasonable	-11643
▁locomotor	-11644
cx	-11645
0.2	-11646
inoid	-11647
▁ulcerative	-11648
▁immunore	-11649
▁harvest	-11650
▁mtdna	-11651
▁surfactant	-11652
electro	-11653
▁parathyroid	-11654
crt	-11655
▁idea	-11656
▁archae	-11657
osum	-11658
heast	-11659
▁whilst	-11660
▁alternatives	-11661
▁opioids	-11662
▁documentation	-11663
▁escape	-11664
▁fibrinogen	-11665
▁acceptability	-11666
lat	-11667
▁compatible	-11668
rv	-11669
▁adduc	-11670
cale	-11671
▁honey	-11672
▁clustered	-11673
▁individualized	-11674
▁suboptimal	-11675
▁suggestive	-11676
▁cephal	-11677
▁comment	-11678
▁biosensor	-11679
loc	-11680
▁edge	-11681
▁tear	-11682
▁traffic	-11683
idel	-11684
▁hyperm	-11685
ests	-11686
▁thiol	-11687
icip	-11688
ensitive	-11689
▁phosphorus	-11690
▁stressors	-11691
▁explanation	-11692
▁adhesive	-11693
xy	-11694
▁percentages	-11695
▁rock	-11696
aki	-11697
▁xanth	-11698
▁feb	-11699
▁crops	-11700
obut	-11701
thy	-11702
▁imag	-11703
istribution	-11704
ocycl	-11705
▁inorganic	-11706
▁peaks	-11707
▁converted	-11708
▁attenuate	-11709
▁intellig	-11710
▁microsp	-11711
▁antiplatelet	-11712
review	-11713
▁ecosystems	-11714
▁volumetric	-11715
▁ssc	-11716
▁corn	-11717
▁vestibular	-11718
▁manufacture	-11719
▁vaccinated	-11720
▁epic	-11721
arium	-11722
dynam	-11723
▁strand	-11724
orporeal	-11725
▁hematological	-11726
▁allergen	-11727
▁hispanic	-11728
▁ling	-11729
oprop	-11730
lm	-11731
▁mexico	-11732
▁rsv	-11733
▁reliably	-11734
idone	-11735
▁painful	-11736
▁anticoagulant	-11737
50,	-11738
▁allo	-11739
lot	-11740
▁typing	-11741
▁ferr	-11742
▁calls	-11743
▁amd	-11744
bis	-11745
centric	-11746
▁transverse	-11747
▁altogether	-11748
-1.5	-11749
essary	-11750
▁specialists	-11751
▁dioxide	-11752
▁axon	-11753
▁cryop	-11754
▁mhc	-11755
▁(35	-11756
arach	-11757
▁burst	-11758
▁glycogen	-11759
▁(37	-11760
iversity	-11761
▁fda	-11762
nals	-11763
▁meningitis	-11764
▁cass	-11765
fulness	-11766
▁scienti	-11767
istries	-11768
▁gt	-11769
▁sg	-11770
▁cooperative	-11771
▁arrays	-11772
ophan	-11773
▁pah	-11774
▁phenomena	-11775
osides	-11776
▁earth	-11777
▁shunt	-11778
▁4.7	-11779
▁fores	-11780
▁security	-11781
▁liv	-11782
▁foci	-11783
abl	-11784
enol	-11785
▁exacerbation	-11786
81	-11787
16,	-11788
▁supernat	-11789
▁initiatives	-11790
▁hydrophilic	-11791
▁deacetyl	-11792
▁quickly	-11793
▁reinforce	-11794
▁stepwise	-11795
▁2011,	-11796
press	-11797
▁silk	-11798
▁anesthetic	-11799
neur	-11800
▁schist	-11801
character	-11802
ustion	-11803
▁hypothesize	-11804
▁spherical	-11805
▁hold	-11806
▁advoc	-11807
▁venom	-11808
etine	-11809
▁ipsilateral	-11810
▁neurotransmit	-11811
je	-11812
ona	-11813
▁4.8	-11814
▁cloned	-11815
▁harves	-11816
▁gg	-11817
▁oxyt	-11818
strual	-11819
▁bronchial	-11820
▁checklist	-11821
cystic	-11822
▁20-	-11823
▁mu	-11824
levant	-11825
<.00	-11826
▁journals	-11827
▁propagation	-11828
galact	-11829
bach	-11830
▁contraceptive	-11831
▁investigators	-11832
-27	-11833
▁elicit	-11834
▁gst	-11835
odgkin	-11836
▁enrollment	-11837
▁methanol	-11838
▁hepatocyte	-11839
▁parp	-11840
othermal	-11841
▁career	-11842
role	-11843
▁qrt	-11844
▁suv	-11845
▁sexes	-11846
▁isotope	-11847
hero	-11848
▁latest	-11849
cre	-11850
▁oils	-11851
illar	-11852
▁swallow	-11853
▁households	-11854
omnia	-11855
ttes	-11856
uclein	-11857
▁distinguished	-11858
0.1	-11859
ragmatic	-11860
▁abiotic	-11861
obese	-11862
▁digestive	-11863
ixed	-11864
▁lifespan	-11865
▁argue	-11866
ading	-11867
▁spray	-11868
▁assembled	-11869
uvate	-11870
▁impedance	-11871
cont	-11872
icating	-11873
▁excitatory	-11874
uan	-11875
▁patency	-11876
hetamine	-11877
genome	-11878
▁engaged	-11879
▁relate	-11880
▁foxp	-11881
▁pbm	-11882
▁cadmium	-11883
sal	-11884
5%),	-11885
▁eosinophil	-11886
▁combat	-11887
uli	-11888
▁mw	-11889
beta	-11890
▁synapses	-11891
▁continuing	-11892
▁ppm	-11893
▁illustrated	-11894
ticals	-11895
▁transcribed	-11896
tending	-11897
▁sparse	-11898
▁110	-11899
▁neutrop	-11900
▁arteri	-11901
oric	-11902
▁reservoir	-11903
mel	-11904
▁testis	-11905
▁municip	-11906
▁loads	-11907
▁hsa	-11908
acid	-11909
▁(31	-11910
]-	-11911
ologically	-11912
▁reactivation	-11913
▁neo	-11914
▁selecting	-11915
ecan	-11916
▁apparently	-11917
▁vegetables	-11918
▁uric	-11919
▁floor	-11920
▁swedish	-11921
▁transduc	-11922
▁adren	-11923
iaceae	-11924
▁.001),	-11925
▁missense	-11926
tiles	-11927
▁veins	-11928
ittal	-11929
▁encephalitis	-11930
▁eigh	-11931
▁doctor	-11932
▁bv	-11933
▁anastomosis	-11934
▁gains	-11935
▁tone	-11936
▁cleaved	-11937
▁prepare	-11938
ostatin	-11939
▁photoreceptor	-11940
▁(32	-11941
ason	-11942
enzyme	-11943
▁attitude	-11944
▁glycolysis	-11945
-1/	-11946
▁transcriptomic	-11947
artan	-11948
▁haemorrh	-11949
▁impacted	-11950
▁methodologies	-11951
▁caution	-11952
±2	-11953
▁lengths	-11954
▁expertise	-11955
▁residency	-11956
▁ud	-11957
alpha	-11958
total	-11959
▁wean	-11960
▁remove	-11961
▁intakes	-11962
▁county	-11963
iotics	-11964
established	-11965
▁conflicting	-11966
rations	-11967
▁phospho	-11968
sil	-11969
pac	-11970
arity	-11971
▁15,	-11972
otyping	-11973
▁stimulates	-11974
▁atg	-11975
▁aeti	-11976
▁odor	-11977
▁bridge	-11978
isal	-11979
▁(36	-11980
▁15-	-11981
▁skull	-11982
▁bring	-11983
▁puber	-11984
violet	-11985
▁cast	-11986
ipt	-11987
▁ketamine	-11988
▁replace	-11989
▁york	-11990
▁obstac	-11991
dialdehyde	-11992
oal	-11993
▁bs	-11994
▁caroten	-11995
▁keratinocytes	-11996
▁vertebrate	-11997
▁lid	-11998
tag	-11999
prob	-12000
ponent	-12001
▁intrauterine	-12002
acking	-12003
ccs	-12004
▁avoiding	-12005
iesis	-12006
▁incen	-12007
▁couples	-12008
▁trainees	-12009
▁wk	-12010
92	-12011
▁characterizing	-12012
dn	-12013
itr	-12014
(®)	-12015
▁glycosylation	-12016
-33	-12017
▁105	-12018
▁cha	-12019
dawley	-12020
▁neoplasm	-12021
▁achievement	-12022
▁neuroblastoma	-12023
▁infl	-12024
ositis	-12025
▁pocket	-12026
▁entities	-12027
▁multifunctional	-12028
▁unnec	-12029
itter	-12030
▁resorption	-12031
kes	-12032
snps	-12033
▁polysaccharides	-12034
/10	-12035
nsclc	-12036
▁divergent	-12037
oflurane	-12038
entricular	-12039
▁articular	-12040
secre	-12041
▁irradiated	-12042
▁arrhythmias	-12043
▁cooperation	-12044
▁lipase	-12045
▁displays	-12046
rem	-12047
mapk	-12048
▁reform	-12049
att	-12050
prim	-12051
▁learn	-12052
▁troph	-12053
▁troponin	-12054
▁inhalation	-12055
▁heterologous	-12056
91	-12057
▁hands	-12058
▁prosthetic	-12059
▁cue	-12060
chrom	-12061
▁regurgitation	-12062
▁cil	-12063
▁postural	-12064
▁vesicle	-12065
▁semantic	-12066
▁tal	-12067
▁spatially	-12068
▁orthopaedic	-12069
▁saccharomyces	-12070
▁accid	-12071
▁representations	-12072
▁indicative	-12073
▁laryng	-12074
▁balb	-12075
▁square	-12076
▁benchmark	-12077
▁unfavorable	-12078
▁microbes	-12079
rates	-12080
▁uncontro	-12081
▁0.12	-12082
▁selenium	-12083
▁atax	-12084
antitative	-12085
▁radiology	-12086
ply	-12087
▁osteoblast	-12088
▁5.3	-12089
▁prescriptions	-12090
-3)	-12091
idation	-12092
tgf	-12093
▁killer	-12094
▁dha	-12095
▁taxonomic	-12096
▁rum	-12097
edema	-12098
▁anion	-12099
▁oligonucle	-12100
fi	-12101
▁dial	-12102
rost	-12103
▁debr	-12104
▁zones	-12105
▁tat	-12106
▁0.001,	-12107
unately	-12108
▁paradox	-12109
▁ameliorated	-12110
acereb	-12111
▁refine	-12112
▁germination	-12113
▁collect	-12114
▁rescued	-12115
▁physically	-12116
▁electrostatic	-12117
vo	-12118
▁attended	-12119
▁desirable	-12120
▁standing	-12121
▁reperto	-12122
▁stained	-12123
.73	-12124
▁mimicking	-12125
▁mcp	-12126
▁balanced	-12127
ographically	-12128
▁metabolomics	-12129
▁explores	-12130
▁fabrication	-12131
behavi	-12132
▁sharp	-12133
▁1·	-12134
cyp	-12135
ushing	-12136
▁mesenteric	-12137
▁differing	-12138
▁mating	-12139
▁cosmetic	-12140
oflav	-12141
▁pearson	-12142
alanine	-12143
▁quartile	-12144
▁hsv	-12145
▁antipsychotic	-12146
▁residence	-12147
▁multif	-12148
▁terr	-12149
▁microm	-12150
▁mari	-12151
alg	-12152
▁offic	-12153
▁5.2	-12154
▁relapsed	-12155
▁designated	-12156
▁parasitic	-12157
▁conference	-12158
▁cryopres	-12159
▁hematoma	-12160
▁stoch	-12161
▁graded	-12162
▁neoplastic	-12163
▁strengths	-12164
▁gliomas	-12165
▁fourteen	-12166
▁vasculature	-12167
otubes	-12168
▁circumstances	-12169
uctive	-12170
▁disulfide	-12171
foot	-12172
▁neurotrophic	-12173
▁anova	-12174
▁cerebellum	-12175
ewal	-12176
agland	-12177
▁sweet	-12178
▁ghrelin	-12179
▁amputation	-12180
folded	-12181
▁sweden	-12182
▁2016,	-12183
▁consor	-12184
▁sacr	-12185
▁kingdom	-12186
layer	-12187
▁0.25	-12188
▁accommod	-12189
urn	-12190
▁("	-12191
▁disseminated	-12192
odex	-12193
▁bands	-12194
ou	-12195
▁trib	-12196
citabine	-12197
▁duplic	-12198
▁kinds	-12199
▁scheduled	-12200
▁tablets	-12201
▁modeled	-12202
▁persisted	-12203
▁survived	-12204
▁quantifying	-12205
du	-12206
rexate	-12207
▁ganglia	-12208
▁glu	-12209
ofrequency	-12210
▁cultivars	-12211
▁carbapenem	-12212
▁14,	-12213
▁hmgb	-12214
▁jejun	-12215
▁chondrocytes	-12216
hplc	-12217
▁sds	-12218
cortical	-12219
-6-	-12220
▁thirteen	-12221
▁priming	-12222
▁deletions	-12223
alis	-12224
osensory	-12225
▁consumer	-12226
administration	-12227
▁pec	-12228
▁geometric	-12229
▁corticosteroid	-12230
osom	-12231
▁discom	-12232
▁bonding	-12233
▁kv	-12234
▁anaesthesia	-12235
▁depressed	-12236
▁innovation	-12237
▁incorporate	-12238
effect	-12239
▁mobilization	-12240
▁oz	-12241
▁allosteric	-12242
▁versatile	-12243
▁3%	-12244
▁utilize	-12245
▁ligase	-12246
▁vox	-12247
▁myocardium	-12248
hdl	-12249
▁infras	-12250
ipit	-12251
▁away	-12252
▁angles	-12253
stituted	-12254
▁functionalized	-12255
oidosis	-12256
▁adenomas	-12257
▁ivf	-12258
▁conjunctiv	-12259
▁acetylcholine	-12260
▁posttraumatic	-12261
▁aeros	-12262
▁wrist	-12263
eliac	-12264
▁retain	-12265
▁pum	-12266
▁lf	-12267
▁oligodend	-12268
▁fisher	-12269
▁confirms	-12270
▁specialty	-12271
▁deformity	-12272
itual	-12273
▁multicentre	-12274
▁proteases	-12275
▁harvested	-12276
▁replaced	-12277
-60	-12278
minute	-12279
▁excitability	-12280
▁7.5	-12281
table	-12282
▁collective	-12283
pregn	-12284
▁noct	-12285
till	-12286
▁aven	-12287
▁tris	-12288
otrexate	-12289
▁ocean	-12290
▁hysterectomy	-12291
▁vasodil	-12292
▁stenting	-12293
▁eliminate	-12294
▁ammonia	-12295
-67	-12296
bar	-12297
▁condens	-12298
▁aggression	-12299
iper	-12300
▁optimizing	-12301
▁undergraduate	-12302
son	-12303
▁vitre	-12304
▁illnesses	-12305
▁proteinuria	-12306
(3	-12307
olipoprotein	-12308
▁radiofrequency	-12309
▁exercises	-12310
sion	-12311
▁probiotic	-12312
50)	-12313
expressed	-12314
articular	-12315
▁bruce	-12316
▁bones	-12317
sl	-12318
▁bioc	-12319
▁robustness	-12320
▁adaptations	-12321
atite	-12322
▁workflow	-12323
▁editor	-12324
▁dsm	-12325
elae	-12326
▁nanoc	-12327
▁rising	-12328
▁maca	-12329
crnas	-12330
atation	-12331
▁thereafter	-12332
dop	-12333
▁accessibility	-12334
perm	-12335
elle	-12336
▁myosin	-12337
▁biophysical	-12338
▁caucasian	-12339
▁extracorporeal	-12340
vii	-12341
coming	-12342
▁mimics	-12343
apor	-12344
olum	-12345
▁filled	-12346
kl	-12347
oglyc	-12348
clim	-12349
▁cotton	-12350
▁exploited	-12351
▁tachycardia	-12352
▁worksh	-12353
▁analytes	-12354
▁malondialdehyde	-12355
▁theories	-12356
inel	-12357
▁gdm	-12358
▁intens	-12359
▁splenic	-12360
initi	-12361
▁moment	-12362
▁(38	-12363
▁stabilized	-12364
▁schw	-12365
▁endocardi	-12366
ww	-12367
▁cet	-12368
▁emotions	-12369
▁scavenging	-12370
vef	-12371
astern	-12372
▁battery	-12373
▁zoon	-12374
0.05).	-12375
bra	-12376
▁crisis	-12377
sized	-12378
▁immunost	-12379
▁leishmania	-12380
.1,	-12381
▁felt	-12382
floxacin	-12383
aminase	-12384
▁temporary	-12385
▁indirectly	-12386
▁sbp	-12387
▁investigates	-12388
▁lymphaden	-12389
▁protecting	-12390
anda	-12391
▁regularly	-12392
▁http	-12393
▁habitats	-12394
▁dystrophy	-12395
▁expectancy	-12396
▁insomnia	-12397
▁splice	-12398
▁partition	-12399
▁enhancer	-12400
▁vibr	-12401
▁ee	-12402
ophosphate	-12403
▁(5-	-12404
▁dutch	-12405
▁leukocytes	-12406
pres	-12407
▁enamel	-12408
▁note	-12409
▁encourage	-12410
▁sig	-12411
▁physiologic	-12412
gel	-12413
▁atom	-12414
▁pose	-12415
▁retard	-12416
dividual	-12417
ulas	-12418
toxic	-12419
▁photoc	-12420
▁hypoglycemia	-12421
▁harboring	-12422
bf	-12423
berg	-12424
omyelitis	-12425
▁discomfort	-12426
▁employees	-12427
ette	-12428
▁brainstem	-12429
▁immunoassay	-12430
▁extrap	-12431
▁myofib	-12432
valence	-12433
▁abst	-12434
▁hypertrophic	-12435
▁neurotoxicity	-12436
▁firing	-12437
▁hypothermia	-12438
▁intermediates	-12439
▁intran	-12440
▁manufacturing	-12441
▁mapped	-12442
▁inhaled	-12443
▁excluding	-12444
▁transparen	-12445
▁unnecessary	-12446
▁seconds	-12447
▁irreversible	-12448
▁ppi	-12449
▁tio	-12450
▁intracereb	-12451
▁john	-12452
▁raise	-12453
▁delivering	-12454
▁rho	-12455
itudes	-12456
▁eps	-12457
yster	-12458
earman	-12459
▁monkeys	-12460
mcs	-12461
rcts	-12462
pharmac	-12463
abdominal	-12464
bsi	-12465
▁trna	-12466
oviruses	-12467
▁chemically	-12468
ults	-12469
▁flaps	-12470
▁expensive	-12471
▁answer	-12472
▁decompression	-12473
▁derive	-12474
▁axons	-12475
▁emphasize	-12476
orum	-12477
▁polymorphic	-12478
▁psycho	-12479
5%).	-12480
▁glucagon	-12481
▁detox	-12482
▁haplotypes	-12483
▁preschool	-12484
▁duplication	-12485
▁caring	-12486
▁fly	-12487
▁clade	-12488
▁9,	-12489
▁polyps	-12490
▁hed	-12491
▁slope	-12492
▁aiming	-12493
▁correspond	-12494
reedom	-12495
▁distinctive	-12496
▁microbiological	-12497
▁dust	-12498
iable	-12499
▁zika	-12500
▁yr	-12501
ferior	-12502
▁dressing	-12503
▁urothe	-12504
▁prednis	-12505
amines	-12506
spectrum	-12507
gated	-12508
▁sulfur	-12509
▁moun	-12510
polymer	-12511
pensable	-12512
olester	-12513
▁kd	-12514
oderma	-12515
▁farms	-12516
pca	-12517
▁mechanics	-12518
obi	-12519
▁spermatozoa	-12520
▁helicobacter	-12521
power	-12522
▁femur	-12523
▁mab	-12524
▁come	-12525
▁mediast	-12526
▁sixteen	-12527
▁pollutants	-12528
▁ome	-12529
▁intravit	-12530
▁spreading	-12531
▁abnormality	-12532
var	-12533
▁que	-12534
▁myelin	-12535
▁performances	-12536
-1.6	-12537
▁ticks	-12538
▁danish	-12539
▁clients	-12540
▁gemcitabine	-12541
▁ultraviolet	-12542
▁methan	-12543
▁angiogenic	-12544
▁instrumental	-12545
▁ez	-12546
▁modulators	-12547
.0%,	-12548
▁distor	-12549
ycinfo	-12550
▁pesticides	-12551
▁sorting	-12552
▁ix	-12553
gevity	-12554
omized	-12555
▁expon	-12556
nucleotide	-12557
ptional	-12558
▁possesses	-12559
▁format	-12560
rectional	-12561
qi	-12562
osure	-12563
=-0.	-12564
▁src	-12565
▁kary	-12566
▁nick	-12567
▁nadph	-12568
▁6.5	-12569
5/	-12570
▁projects	-12571
caemia	-12572
leb	-12573
▁dispar	-12574
▁lowered	-12575
▁attentional	-12576
agg	-12577
▁nicotin	-12578
▁methicillin	-12579
cvd	-12580
trim	-12581
▁subtilis	-12582
▁stochastic	-12583
400	-12584
▁mosa	-12585
▁serological	-12586
sequencing	-12587
mw	-12588
▁mitigate	-12589
thrombotic	-12590
brt	-12591
▁searching	-12592
▁methotrexate	-12593
▁endurance	-12594
▁reviewers	-12595
▁vib	-12596
▁stock	-12597
▁segmental	-12598
proced	-12599
▁microsat	-12600
▁df	-12601
▁4.9	-12602
▁psycinfo	-12603
▁exacerbations	-12604
▁apolipoprotein	-12605
oi	-12606
▁taxon	-12607
▁%.	-12608
omyces	-12609
insulin	-12610
▁patent	-12611
▁rigorous	-12612
▁technological	-12613
opid	-12614
▁scholar	-12615
▁epidemiologic	-12616
▁branches	-12617
▁radiologists	-12618
vular	-12619
▁solv	-12620
▁teachers	-12621
olding	-12622
▁burnout	-12623
know	-12624
▁mismatch	-12625
▁problematic	-12626
bul	-12627
system	-12628
▁mci	-12629
▁lentiv	-12630
kit	-12631
tigra	-12632
omed	-12633
case	-12634
▁bw	-12635
▁106	-12636
▁junctions	-12637
▁unfort	-12638
▁attain	-12639
infrared	-12640
▁catalyst	-12641
raining	-12642
udi	-12643
itance	-12644
▁interfere	-12645
▁termination	-12646
unit	-12647
posure	-12648
▁chimeric	-12649
▁adp	-12650
▁accelerate	-12651
▁hydration	-12652
▁libraries	-12653
ault	-12654
smok	-12655
▁cub	-12656
▁constitutes	-12657
arginine	-12658
▁ammonium	-12659
etaxel	-12660
synuclein	-12661
▁interpersonal	-12662
uling	-12663
regulate	-12664
▁chiral	-12665
▁cultivation	-12666
burg	-12667
luor	-12668
▁spike	-12669
omial	-12670
▁aspart	-12671
racycline	-12672
▁finite	-12673
culture	-12674
▁lymphocytic	-12675
▁game	-12676
▁plates	-12677
▁encapsulated	-12678
▁extending	-12679
▁poisoning	-12680
▁bilirubin	-12681
▁scientists	-12682
organization	-12683
▁die	-12684
▁spr	-12685
.5%),	-12686
▁normalization	-12687
▁chemokines	-12688
▁vertebrates	-12689
swe	-12690
▁bf	-12691
▁rnai	-12692
▁borderline	-12693
▁chel	-12694
▁drives	-12695
▁sagittal	-12696
▁donation	-12697
▁imprin	-12698
transcriptional	-12699
▁tightly	-12700
▁prp	-12701
▁sorafenib	-12702
alc	-12703
▁trpv	-12704
ogrel	-12705
inositol	-12706
▁fluoride	-12707
▁nacl	-12708
▁ecology	-12709
▁hypotension	-12710
▁morning	-12711
▁hbs	-12712
micro	-12713
▁longevity	-12714
ipital	-12715
ishing	-12716
▁nested	-12717
▁deformation	-12718
▁cities	-12719
amn	-12720
▁paid	-12721
▁victim	-12722
osoma	-12723
▁flies	-12724
grading	-12725
▁7.4	-12726
▁quanti	-12727
activating	-12728
acquired	-12729
tissue	-12730
▁inoculation	-12731
▁ll	-12732
aryl	-12733
▁dominated	-12734
▁lym	-12735
03	-12736
▁filling	-12737
▁fifth	-12738
▁naïve	-12739
▁dyslipidemia	-12740
oxifen	-12741
▁nasopharyngeal	-12742
oxia	-12743
ago	-12744
cein	-12745
▁dentin	-12746
cholesterol	-12747
▁polyethylene	-12748
imumab	-12749
▁salinity	-12750
▁contractile	-12751
▁aro	-12752
▁indoor	-12753
▁arrhythmia	-12754
0/	-12755
▁axillary	-12756
vec	-12757
▁curv	-12758
▁decomposition	-12759
illi	-12760
▁whereby	-12761
▁recycling	-12762
▁endocytosis	-12763
▁fb	-12764
arynx	-12765
▁uncontrolled	-12766
▁(1.0	-12767
▁disordered	-12768
noid	-12769
▁polarity	-12770
▁(34	-12771
▁gol	-12772
▁kl	-12773
icine	-12774
▁backbone	-12775
study	-12776
▁triggering	-12777
mv	-12778
▁helix	-12779
.).	-12780
▁clamp	-12781
▁fen	-12782
▁2010,	-12783
▁moist	-12784
▁determines	-12785
▁mosquitoes	-12786
enoic	-12787
▁exem	-12788
▁abl	-12789
▁4.	-12790
▁heavi	-12791
▁euth	-12792
▁parenting	-12793
▁galact	-12794
▁briefly	-12795
▁lists	-12796
▁wavel	-12797
▁ltd	-12798
metast	-12799
▁iliac	-12800
ido	-12801
▁harmon	-12802
▁waiting	-12803
rsv	-12804
▁antis	-12805
represent	-12806
▁autophagic	-12807
▁oxytocin	-12808
osensiti	-12809
pol	-12810
idelity	-12811
ultry	-12812
▁dilation	-12813
▁simplified	-12814
▁internalization	-12815
vive	-12816
not	-12817
rone	-12818
conditioning	-12819
▁prostagland	-12820
▁aqp	-12821
ulose	-12822
▁ah	-12823
▁ken	-12824
▁connective	-12825
icious	-12826
▁das	-12827
lyte	-12828
▁unmet	-12829
randial	-12830
▁sufficiently	-12831
▁hoc	-12832
▁ferritin	-12833
▁biodiversity	-12834
▁introducing	-12835
▁gastrectomy	-12836
ara	-12837
tlr	-12838
▁deeper	-12839
▁minute	-12840
cult	-12841
quire	-12842
limiting	-12843
▁cup	-12844
▁ky	-12845
▁nb	-12846
▁cing	-12847
▁osteoblasts	-12848
▁enterobacter	-12849
▁encode	-12850
inferior	-12851
fast	-12852
▁modifying	-12853
500	-12854
standing	-12855
▁regulations	-12856
cient	-12857
▁offering	-12858
▁gins	-12859
▁failures	-12860
▁managers	-12861
▁orthodontic	-12862
xl	-12863
▁ensemb	-12864
▁synchronous	-12865
▁multilevel	-12866
▁11,	-12867
▁125	-12868
▁sut	-12869
▁neurocognitive	-12870
qs	-12871
loop	-12872
▁degraded	-12873
▁generates	-12874
atid	-12875
etite	-12876
tf	-12877
▁thinking	-12878
▁distinguishing	-12879
ece	-12880
▁fdg	-12881
8(+)	-12882
▁detachment	-12883
▁5'	-12884
▁abd	-12885
▁fev	-12886
parametric	-12887
▁workforce	-12888
titude	-12889
olateral	-12890
▁preceding	-12891
▁gab	-12892
▁hes	-12893
▁5'-	-12894
▁5.1	-12895
▁febrile	-12896
▁serotype	-12897
nos	-12898
tims	-12899
oresistance	-12900
▁glycerol	-12901
▁music	-12902
▁comprises	-12903
▁freedom	-12904
▁registries	-12905
▁≥1	-12906
▁inference	-12907
▁pth	-12908
arboxyl	-12909
▁periodic	-12910
▁(≤	-12911
identified	-12912
▁satisfied	-12913
▁photodynamic	-12914
▁eliminated	-12915
▁pharmacologic	-12916
ama	-12917
▁virt	-12918
opidogrel	-12919
▁residential	-12920
▁gondii	-12921
urin	-12922
▁jun	-12923
▁flight	-12924
▁morbid	-12925
▁cfu	-12926
0-	-12927
▁fn	-12928
▁5.6	-12929
▁bcr	-12930
▁alginate	-12931
▁ice	-12932
▁pcv	-12933
imetic	-12934
▁poultry	-12935
▁scaling	-12936
▁progressively	-12937
▁unfortunately	-12938
▁ancient	-12939
etts	-12940
atpase	-12941
▁transcranial	-12942
▁disl	-12943
▁flowering	-12944
wf	-12945
▁runx	-12946
▁trail	-12947
▁0%	-12948
▁confers	-12949
▁housing	-12950
fem	-12951
▁projection	-12952
-2.	-12953
brids	-12954
53,	-12955
bet	-12956
▁commitment	-12957
ativity	-12958
cing	-12959
ometabolic	-12960
▁dysphagia	-12961
▁mandatory	-12962
hydration	-12963
▁practitioner	-12964
.0,	-12965
▁nest	-12966
▁descending	-12967
limb	-12968
▁stones	-12969
▁realistic	-12970
▁nort	-12971
ermined	-12972
▁rein	-12973
▁trabecular	-12974
▁annually	-12975
▁gpr	-12976
▁rpe	-12977
ogeny	-12978
third	-12979
▁dissolved	-12980
▁ribosome	-12981
▁chlamy	-12982
cycle	-12983
reduc	-12984
▁orders	-12985
strand	-12986
▁tsh	-12987
▁mosaic	-12988
2(	-12989
▁gfp	-12990
▁corpus	-12991
▁mdd	-12992
rid	-12993
▁tcr	-12994
ineal	-12995
▁delta	-12996
▁survive	-12997
inesterase	-12998
▁spatiotemporal	-12999
▁mad	-13000
▁assayed	-13001
▁counting	-13002
▁hunting	-13003
-1.7	-13004
▁dfs	-13005
▁suspic	-13006
▁bases	-13007
▁ensuring	-13008
▁sacrific	-13009
▁conjugation	-13010
pired	-13011
▁pacific	-13012
ucl	-13013
aternal	-13014
▁csa	-13015
▁encapsulation	-13016
▁eif	-13017
▁echo	-13018
▁ingredients	-13019
▁prospec	-13020
▁foam	-13021
▁boundary	-13022
▁transmit	-13023
▁welf	-13024
▁vl	-13025
oted	-13026
oxic	-13027
ishes	-13028
▁zo	-13029
glycerol	-13030
omo	-13031
actone	-13032
▁viewed	-13033
▁pem	-13034
umptions	-13035
▁600	-13036
▁104	-13037
▁lithium	-13038
▁cope	-13039
▁nationally	-13040
▁mag	-13041
▁combine	-13042
▁turkey	-13043
titution	-13044
▁obl	-13045
▁translated	-13046
cns	-13047
▁welfare	-13048
ypti	-13049
▁5.4	-13050
nary	-13051
▁foxo	-13052
▁sheath	-13053
ococ	-13054
▁viv	-13055
▁originating	-13056
▁rg	-13057
▁exome	-13058
▁xenografts	-13059
▁jaw	-13060
neuro	-13061
▁dab	-13062
▁overexpressing	-13063
▁works	-13064
hyper	-13065
▁quasi	-13066
sk	-13067
▁rbc	-13068
-26	-13069
▁subsc	-13070
▁dilution	-13071
▁immunob	-13072
▁gf	-13073
▁deficiencies	-13074
▁intravitreal	-13075
▁anesthe	-13076
▁tracheal	-13077
▁prion	-13078
logy	-13079
▁swimming	-13080
▁explaining	-13081
orf	-13082
affin	-13083
▁notion	-13084
▁alkaloids	-13085
▁breaks	-13086
chip	-13087
▁reality	-13088
▁prostat	-13089
▁aggregate	-13090
▁plasmin	-13091
orr	-13092
▁mk	-13093
▁(48	-13094
▁discrimin	-13095
annel	-13096
▁pom	-13097
factorial	-13098
▁gradients	-13099
igf	-13100
▁nmda	-13101
▁kle	-13102
▁moral	-13103
▁islets	-13104
▁landmark	-13105
▁unlikely	-13106
▁9-	-13107
▁colour	-13108
▁colonies	-13109
pfs	-13110
▁κ	-13111
ea	-13112
▁assumptions	-13113
▁political	-13114
▁oligodendro	-13115
iana	-13116
▁biosens	-13117
adp	-13118
▁equival	-13119
▁radicals	-13120
biased	-13121
▁neutropenia	-13122
forward	-13123
dam	-13124
▁ami	-13125
ronectin	-13126
ony	-13127
ifug	-13128
▁messenger	-13129
▁intramuscular	-13130
individual	-13131
ophe	-13132
▁spots	-13133
amen	-13134
▁fused	-13135
▁mercury	-13136
vecs	-13137
elisa	-13138
▁empt	-13139
▁schwann	-13140
uent	-13141
▁compromise	-13142
tii	-13143
▁thyro	-13144
▁fibrous	-13145
iments	-13146
astuzumab	-13147
▁bolus	-13148
▁omega	-13149
catalyzed	-13150
▁lake	-13151
▁dihydro	-13152
▁annotation	-13153
▁hh	-13154
▁subtle	-13155
▁cholinergic	-13156
▁inoculated	-13157
▁autopsy	-13158
posal	-13159
rogens	-13160
haran	-13161
▁docetaxel	-13162
characterized	-13163
▁soc	-13164
soluble	-13165
toler	-13166
▁alleviate	-13167
bred	-13168
▁suspicion	-13169
odi	-13170
nscc	-13171
▁readmissions	-13172
▁fh	-13173
▁aest	-13174
▁sputum	-13175
▁intercellular	-13176
deoxy	-13177
▁sentinel	-13178
dem	-13179
▁0.99	-13180
▁plasmids	-13181
▁phthal	-13182
▁audit	-13183
▁infrastructure	-13184
▁20,	-13185
▁meningi	-13186
▁definite	-13187
▁solely	-13188
▁aba	-13189
▁supra	-13190
▁encouraging	-13191
▁precisely	-13192
cyclic	-13193
yday	-13194
▁cuff	-13195
▁aaa	-13196
ami	-13197
▁beet	-13198
▁postp	-13199
estock	-13200
west	-13201
18,	-13202
▁stroma	-13203
iazep	-13204
limited	-13205
▁compensation	-13206
▁plots	-13207
▁nodule	-13208
▁substitutions	-13209
nl	-13210
stimulating	-13211
▁cadaver	-13212
▁compensatory	-13213
▁hypothalamus	-13214
inted	-13215
▁4%	-13216
▁phytochemical	-13217
abd	-13218
▁victims	-13219
▁ove	-13220
▁sj	-13221
▁natri	-13222
resistance	-13223
aginal	-13224
▁fructose	-13225
▁navigation	-13226
ckd	-13227
urea	-13228
▁mechanistically	-13229
▁clopidogrel	-13230
▁symb	-13231
▁histopathologic	-13232
ij	-13233
▁plot	-13234
▁5.8	-13235
▁dispersal	-13236
▁erythrocyte	-13237
▁mesothe	-13238
▁deviations	-13239
▁russ	-13240
ogle	-13241
▁fos	-13242
otrac	-13243
iles	-13244
▁tablet	-13245
iled	-13246
▁psychotic	-13247
heses	-13248
uspid	-13249
▁entrop	-13250
▁sequelae	-13251
paratus	-13252
evalu	-13253
▁negl	-13254
▁χ	-13255
▁accumulate	-13256
▁seal	-13257
ethnic	-13258
▁segregation	-13259
▁frames	-13260
dwelling	-13261
▁you	-13262
▁pax	-13263
▁humid	-13264
▁consortium	-13265
▁possibilities	-13266
▁subpopulations	-13267
eking	-13268
▁fd	-13269
umber	-13270
▁began	-13271
▁sphero	-13272
▁effectors	-13273
▁micropartic	-13274
▁ease	-13275
▁walls	-13276
propor	-13277
▁claud	-13278
reen	-13279
verted	-13280
▁granules	-13281
.2,	-13282
▁slices	-13283
▁nucleotides	-13284
▁humoral	-13285
▁lectin	-13286
▁freshwater	-13287
▁(42	-13288
▁indexes	-13289
▁ischaemic	-13290
quad	-13291
.3%),	-13292
▁seemed	-13293
▁everyday	-13294
▁mining	-13295
▁chromatographic	-13296
▁serving	-13297
▁photosynthesis	-13298
▁mentioned	-13299
▁constip	-13300
targeting	-13301
▁apparatus	-13302
▁phospholipid	-13303
▁morphogenesis	-13304
▁tons	-13305
▁transpos	-13306
hsp	-13307
rat	-13308
▁boost	-13309
oglycan	-13310
▁aptamer	-13311
▁dysregulated	-13312
rc	-13313
▁nhs	-13314
6/	-13315
za	-13316
▁amni	-13317
tivities	-13318
▁escc	-13319
ano	-13320
essel	-13321
▁diameters	-13322
▁arterio	-13323
▁gb	-13324
unsaturated	-13325
▁electroencephal	-13326
▁asp	-13327
▁monte	-13328
enriched	-13329
▁argu	-13330
▁assign	-13331
▁bank	-13332
▁duplex	-13333
▁gout	-13334
▁associate	-13335
▁striatal	-13336
▁outpatients	-13337
▁legis	-13338
▁0.02).	-13339
▁livestock	-13340
▁infancy	-13341
▁lactation	-13342
▁manus	-13343
▁demyel	-13344
▁happ	-13345
▁mycop	-13346
▁sickle	-13347
▁brad	-13348
▁prostatectomy	-13349
▁accumulating	-13350
▁labour	-13351
▁simulate	-13352
pur	-13353
▁nanostruct	-13354
▁hematologic	-13355
▁iterative	-13356
▁convenient	-13357
▁amy	-13358
▁attacks	-13359
ophosphamide	-13360
▁addresses	-13361
ergetic	-13362
oselective	-13363
mul	-13364
▁glutamine	-13365
▁pra	-13366
▁bpa	-13367
▁lymphoblastic	-13368
▁triage	-13369
▁pand	-13370
▁dimethyl	-13371
▁esophagus	-13372
oup	-13373
▁intelligence	-13374
abolism	-13375
▁mpa	-13376
▁(39	-13377
▁fgfr	-13378
nv	-13379
▁package	-13380
▁pest	-13381
apit	-13382
▁nsa	-13383
pain	-13384
yma	-13385
▁lib	-13386
▁vegetable	-13387
▁[(	-13388
otri	-13389
▁polypeptide	-13390
▁succin	-13391
▁afferen	-13392
ogas	-13393
corrected	-13394
▁linker	-13395
tn	-13396
▁nude	-13397
▁primates	-13398
bladder	-13399
▁hypothyroidism	-13400
▁mek	-13401
▁guinea	-13402
▁capital	-13403
▁crystals	-13404
▁recurrences	-13405
ratory	-13406
uronic	-13407
▁clone	-13408
▁tryptophan	-13409
isite	-13410
▁anthocyan	-13411
dig	-13412
enching	-13413
▁glycine	-13414
▁3'-	-13415
▁message	-13416
▁primers	-13417
▁reflection	-13418
ogon	-13419
▁manuscri	-13420
diagnosed	-13421
▁rearrangement	-13422
=4	-13423
▁fp	-13424
▁repos	-13425
▁orthopedic	-13426
▁chitin	-13427
▁tors	-13428
dox	-13429
hydr	-13430
-1.8	-13431
▁24,	-13432
▁5.7	-13433
▁pacing	-13434
▁ataxia	-13435
▁fuc	-13436
lioma	-13437
▁(45	-13438
ureth	-13439
▁cina	-13440
▁expir	-13441
▁hop	-13442
▁tubes	-13443
▁(∼	-13444
▁hydrochlor	-13445
▁sugars	-13446
ogro	-13447
.5%).	-13448
otroph	-13449
▁purch	-13450
▁avoided	-13451
▁prey	-13452
▁necessit	-13453
saharan	-13454
▁successive	-13455
▁livers	-13456
-6)	-13457
rage	-13458
ocaine	-13459
▁phagocytosis	-13460
▁viscosity	-13461
▁hid	-13462
▁beads	-13463
▁throughput	-13464
-10,	-13465
▁portug	-13466
▁originally	-13467
▁fellows	-13468
▁thrombotic	-13469
▁generations	-13470
moderate	-13471
regulates	-13472
ifera	-13473
▁removing	-13474
called	-13475
▁occlud	-13476
▁nitrite	-13477
▁heating	-13478
ocysteine	-13479
▁0.14	-13480
▁hox	-13481
dermal	-13482
efficient	-13483
ye	-13484
▁conductance	-13485
-5-	-13486
▁iris	-13487
▁(41	-13488
▁102	-13489
▁conce	-13490
▁syring	-13491
▁parasit	-13492
mid	-13493
▁shortening	-13494
dynamic	-13495
iterp	-13496
▁repertoire	-13497
▁rearrangements	-13498
umann	-13499
▁matern	-13500
▁proteolytic	-13501
▁kir	-13502
razol	-13503
▁radius	-13504
▁aberrations	-13505
rct	-13506
▁16,	-13507
▁gata	-13508
▁islands	-13509
▁catheters	-13510
▁microspheres	-13511
▁sulph	-13512
▁assumption	-13513
copd	-13514
efined	-13515
▁replicated	-13516
ococci	-13517
▁chaperone	-13518
▁atmospheric	-13519
▁phon	-13520
▁microc	-13521
▁ascertain	-13522
▁synthesize	-13523
oxetine	-13524
▁cardiometabolic	-13525
▁aggra	-13526
▁abstracts	-13527
▁entered	-13528
▁alkyl	-13529
oxidase	-13530
▁tregs	-13531
▁oroph	-13532
oriented	-13533
▁acquire	-13534
odom	-13535
▁notable	-13536
▁recre	-13537
▁conges	-13538
▁mineralization	-13539
▁clo	-13540
▁mtorc	-13541
▁organelles	-13542
▁urothelial	-13543
rig	-13544
▁pam	-13545
▁nonspecific	-13546
ends	-13547
▁flavonoid	-13548
▁(1,	-13549
▁disaster	-13550
▁ineffective	-13551
olarization	-13552
axial	-13553
opress	-13554
50%	-13555
upl	-13556
▁boy	-13557
right	-13558
▁actually	-13559
▁tamoxifen	-13560
ancers	-13561
▁classify	-13562
▁properly	-13563
▁contractions	-13564
▁psychiatry	-13565
▁anticoagulants	-13566
▁agar	-13567
▁vasculitis	-13568
▁biomaterials	-13569
ife	-13570
▁aed	-13571
▁hemisphere	-13572
±3	-13573
▁hit	-13574
▁pde	-13575
▁phenol	-13576
▁outline	-13577
ubiqu	-13578
▁abstin	-13579
▁adsorb	-13580
▁eighteen	-13581
▁autoimmunity	-13582
atology	-13583
▁emergent	-13584
arterial	-13585
▁constipation	-13586
epid	-13587
rater	-13588
▁phone	-13589
▁ascending	-13590
orax	-13591
▁sons	-13592
▁cea	-13593
ravel	-13594
reon	-13595
▁pauc	-13596
▁exceeded	-13597
▁cardiomyocyte	-13598
▁ahr	-13599
iest	-13600
▁escal	-13601
▁danger	-13602
▁elabor	-13603
olab	-13604
▁plaus	-13605
▁influx	-13606
▁playing	-13607
▁0.06	-13608
▁peers	-13609
lia	-13610
▁6.0	-13611
▁augment	-13612
▁guan	-13613
▁mutual	-13614
▁unravel	-13615
▁civ	-13616
▁trastuzumab	-13617
▁rotavirus	-13618
▁saturated	-13619
osperm	-13620
▁purs	-13621
▁fitted	-13622
▁yielding	-13623
peak	-13624
▁helped	-13625
▁citrate	-13626
▁cave	-13627
▁kept	-13628
▁messages	-13629
▁irf	-13630
▁attracted	-13631
▁dyspnea	-13632
restric	-13633
▁enlarge	-13634
imes	-13635
▁cholecyst	-13636
▁dg	-13637
▁fuel	-13638
course	-13639
▁stemi	-13640
▁immers	-13641
aturation	-13642
.3,	-13643
▁ign	-13644
▁plantar	-13645
▁refractive	-13646
▁bag	-13647
▁mps	-13648
▁allelic	-13649
▁bbb	-13650
petent	-13651
▁polycystic	-13652
▁herni	-13653
▁ether	-13654
▁biases	-13655
▁lavage	-13656
▁hyperther	-13657
▁cpr	-13658
▁pulsed	-13659
▁workload	-13660
▁resolve	-13661
olol	-13662
▁intensities	-13663
▁140	-13664
▁ala	-13665
▁bacte	-13666
▁freezing	-13667
▁maximize	-13668
▁modulus	-13669
▁ends	-13670
▁shapes	-13671
isson	-13672
▁rose	-13673
▁hype	-13674
ceptive	-13675
acrylate	-13676
ofen	-13677
atization	-13678
▁inhab	-13679
▁(47	-13680
ussion	-13681
▁erythrop	-13682
▁breed	-13683
▁bottom	-13684
▁japonic	-13685
▁85%	-13686
kary	-13687
▁pon	-13688
▁plateau	-13689
-0.7	-13690
itan	-13691
urations	-13692
▁willingness	-13693
▁ihc	-13694
▁natriuretic	-13695
▁ethylene	-13696
▁adenovirus	-13697
imentin	-13698
▁coexist	-13699
▁ww	-13700
▁lymphomas	-13701
ublic	-13702
leration	-13703
lass	-13704
▁firstly	-13705
▁implantable	-13706
▁reagents	-13707
▁(-	-13708
▁cinahl	-13709
osylation	-13710
iomy	-13711
holder	-13712
otropin	-13713
▁anticipated	-13714
▁batch	-13715
▁particulate	-13716
▁osteotomy	-13717
omerization	-13718
▁visualized	-13719
▁ward	-13720
▁atlas	-13721
healthy	-13722
exposure	-13723
▁menstrual	-13724
▁inactivated	-13725
foc	-13726
▁corrob	-13727
oge	-13728
phi	-13729
▁siblings	-13730
ented	-13731
cysteine	-13732
mrna	-13733
inally	-13734
emis	-13735
▁cow	-13736
stalk	-13737
versus	-13738
▁30.	-13739
▁bundle	-13740
mediation	-13741
▁immunostaining	-13742
cho	-13743
smokers	-13744
inis	-13745
▁ban	-13746
▁cytomegal	-13747
ulinum	-13748
▁references	-13749
▁uveitis	-13750
▁serotypes	-13751
▁suitability	-13752
▁arteriovenous	-13753
injury	-13754
stro	-13755
western	-13756
aca	-13757
ills	-13758
▁egf	-13759
▁prostatic	-13760
▁invited	-13761
emt	-13762
▁disap	-13763
▁renin	-13764
(2-	-13765
▁consolidation	-13766
▁catechol	-13767
▁corrobor	-13768
▁<1	-13769
olia	-13770
ethe	-13771
▁programming	-13772
▁formalin	-13773
▁projections	-13774
▁aryl	-13775
urring	-13776
algia	-13777
▁capacities	-13778
▁0.16	-13779
copically	-13780
▁um	-13781
▁6.2	-13782
.7%),	-13783
▁(44	-13784
▁103	-13785
▁bilayer	-13786
▁cardiology	-13787
▁malformation	-13788
▁pge	-13789
▁ontology	-13790
chi	-13791
▁nigeria	-13792
▁pdac	-13793
▁robot	-13794
▁cloning	-13795
cience	-13796
▁republic	-13797
▁appropriately	-13798
▁advancement	-13799
▁leave	-13800
▁tuber	-13801
▁inpatients	-13802
▁suppl	-13803
▁nap	-13804
▁comprise	-13805
▁(43	-13806
yrate	-13807
▁0.13	-13808
segment	-13809
▁abdomen	-13810
▁devast	-13811
▁episodic	-13812
ampl	-13813
▁carp	-13814
▁hypo	-13815
▁ics	-13816
▁artifacts	-13817
▁soph	-13818
ouracil	-13819
▁nephrectomy	-13820
▁polyphenols	-13821
▁stereotactic	-13822
juana	-13823
▁mh	-13824
▁arrangement	-13825
-1.9	-13826
▁oss	-13827
▁hybrids	-13828
▁pacem	-13829
▁erythrocytes	-13830
▁100,000	-13831
▁sumo	-13832
▁endo	-13833
▁postprandial	-13834
▁bad	-13835
▁mixing	-13836
▁puncture	-13837
▁suppressive	-13838
formed	-13839
haps	-13840
▁scalp	-13841
▁cohes	-13842
▁mtb	-13843
▁0.10	-13844
▁promp	-13845
▁prolapse	-13846
▁plexus	-13847
▁catheterization	-13848
▁hat	-13849
▁antidepressants	-13850
▁poses	-13851
▁senior	-13852
▁ubiquitination	-13853
dcs	-13854
▁helper	-13855
▁propri	-13856
20)	-13857
▁cyl	-13858
▁microv	-13859
12,	-13860
53-	-13861
▁tot	-13862
▁preserve	-13863
otropy	-13864
cephalus	-13865
uments	-13866
▁reads	-13867
▁lyso	-13868
▁35%	-13869
▁grey	-13870
icu	-13871
ynchron	-13872
▁shedding	-13873
alle	-13874
▁(1.1	-13875
▁worm	-13876
▁necessity	-13877
▁fingerpr	-13878
▁circulatory	-13879
▁0.15	-13880
▁composites	-13881
tran	-13882
▁alp	-13883
▁recapit	-13884
▁restrain	-13885
▁oncogene	-13886
vr	-13887
▁anesthes	-13888
▁auxin	-13889
▁covalent	-13890
▁palmit	-13891
▁multifactorial	-13892
▁eq	-13893
▁norms	-13894
09	-13895
▁convers	-13896
▁radiologic	-13897
.0)	-13898
▁dnmt	-13899
▁superfamily	-13900
▁cytomegalovirus	-13901
▁passage	-13902
▁microsatellite	-13903
▁trp	-13904
ani	-13905
▁swallowing	-13906
▁conformations	-13907
ject	-13908
▁starvation	-13909
enses	-13910
▁adjustments	-13911
▁rm	-13912
▁1999	-13913
▁coastal	-13914
org	-13915
▁gle	-13916
iguous	-13917
.5)	-13918
▁kb	-13919
▁pretreated	-13920
▁intrig	-13921
▁rhythms	-13922
▁implicit	-13923
where	-13924
▁elbow	-13925
zn	-13926
flight	-13927
▁ameliorate	-13928
▁(46	-13929
afil	-13930
▁erec	-13931
-28	-13932
▁apc	-13933
▁peroxisome	-13934
▁cooling	-13935
azep	-13936
▁spiritual	-13937
lasting	-13938
▁modular	-13939
▁8%	-13940
▁>1	-13941
▁accident	-13942
olesterole	-13943
aims	-13944
▁wash	-13945
▁potato	-13946
ulse	-13947
▁bent	-13948
ext	-13949
▁acceleration	-13950
▁eyel	-13951
▁blockers	-13952
▁uncovered	-13953
▁fre	-13954
▁von	-13955
▁ureter	-13956
▁oscc	-13957
▁fibre	-13958
▁fitting	-13959
▁adipocyte	-13960
▁concentrated	-13961
omatosis	-13962
▁unw	-13963
arachnoid	-13964
▁declines	-13965
top	-13966
▁warrant	-13967
▁autonomy	-13968
▁usp	-13969
▁leucine	-13970
▁develops	-13971
▁vegetation	-13972
▁convenience	-13973
▁sarcoidosis	-13974
scan	-13975
▁twins	-13976
▁mexican	-13977
average	-13978
aceous	-13979
olor	-13980
▁oblig	-13981
▁coff	-13982
▁quar	-13983
azone	-13984
▁consultations	-13985
▁ascorb	-13986
ario	-13987
berry	-13988
seeking	-13989
rotic	-13990
aml	-13991
maxim	-13992
▁imply	-13993
▁unpre	-13994
engine	-13995
▁serous	-13996
avr	-13997
phasic	-13998
oquinol	-13999
ulopathy	-14000
▁1:1	-14001
▁tinn	-14002
▁competency	-14003
▁undes	-14004
▁religious	-14005
1(	-14006
▁mtx	-14007
▁dried	-14008
▁ja	-14009
sement	-14010
lowering	-14011
ithromycin	-14012
▁rct	-14013
(-1),	-14014
▁0.0001),	-14015
epi	-14016
omib	-14017
▁solitary	-14018
ophagy	-14019
wi	-14020
▁gradual	-14021
▁pyruvate	-14022
▁qtl	-14023
ramidal	-14024
eal	-14025
▁talk	-14026
iap	-14027
▁gnrh	-14028
▁closer	-14029
▁slowly	-14030
▁ascites	-14031
ima	-14032
▁orbit	-14033
▁perhaps	-14034
▁fibronectin	-14035
▁cuc	-14036
▁tnbc	-14037
imotor	-14038
▁negligible	-14039
▁anc	-14040
▁physiologically	-14041
▁detector	-14042
▁truncated	-14043
▁fsh	-14044
▁breakdown	-14045
▁0.17	-14046
promoting	-14047
rn	-14048
▁hap	-14049
▁celiac	-14050
▁probiotics	-14051
▁faced	-14052
▁cll	-14053
tetra	-14054
eluting	-14055
fas	-14056
▁brachial	-14057
▁replicate	-14058
release	-14059
▁constants	-14060
▁medically	-14061
▁magnet	-14062
▁deacetylase	-14063
▁intolerance	-14064
▁opportunistic	-14065
▁cultivated	-14066
gus	-14067
.6%),	-14068
▁pharmacology	-14069
psin	-14070
▁lew	-14071
▁incon	-14072
▁fibrotic	-14073
)-1	-14074
▁1),	-14075
.1)	-14076
▁prostaglandin	-14077
▁progressed	-14078
emp	-14079
▁tinnitus	-14080
▁thrombolysis	-14081
▁kcal	-14082
sma	-14083
▁riv	-14084
▁overt	-14085
▁vimentin	-14086
▁crosstalk	-14087
▁voxel	-14088
▁seasons	-14089
▁thr	-14090
olig	-14091
▁documents	-14092
▁favourable	-14093
▁formulated	-14094
▁cryp	-14095
▁deposits	-14096
▁oval	-14097
▁rhinitis	-14098
▁bull	-14099
▁130	-14100
american	-14101
▁inequalities	-14102
▁nanomaterials	-14103
▁(-0.	-14104
plants	-14105
ocent	-14106
▁perturbations	-14107
▁charts	-14108
din	-14109
▁vt	-14110
▁ophthalmic	-14111
ught	-14112
.4%),	-14113
▁osmotic	-14114
▁abc	-14115
▁responsibility	-14116
graft	-14117
▁dominance	-14118
ifferentiated	-14119
▁gels	-14120
▁discrepancies	-14121
luent	-14122
▁equine	-14123
▁capsid	-14124
▁gent	-14125
who	-14126
lase	-14127
▁([	-14128
▁intriguing	-14129
▁reoperation	-14130
▁saudi	-14131
▁modulator	-14132
▁6.8	-14133
umannii	-14134
▁disrupt	-14135
trap	-14136
▁airways	-14137
▁reimb	-14138
▁boundaries	-14139
rcc	-14140
tera	-14141
▁outperform	-14142
▁methylated	-14143
▁(40	-14144
▁implication	-14145
sle	-14146
caemic	-14147
-35	-14148
▁immunoblot	-14149
▁biodegradable	-14150
▁aeg	-14151
▁subarachnoid	-14152
▁submuc	-14153
▁devastating	-14154
ulsions	-14155
▁google	-14156
ief	-14157
▁impression	-14158
▁gar	-14159
▁zoonotic	-14160
▁cingulate	-14161
▁foster	-14162
substituted	-14163
▁tread	-14164
▁chlorophyll	-14165
urred	-14166
abular	-14167
hbv	-14168
onyl	-14169
▁deal	-14170
▁eukaryotes	-14171
▁thermodynamic	-14172
▁ortholog	-14173
▁intox	-14174
▁pka	-14175
▁sit	-14176
ophilus	-14177
▁109	-14178
epile	-14179
▁aerosol	-14180
▁108	-14181
▁crs	-14182
▁compact	-14183
▁transducer	-14184
apatite	-14185
▁constr	-14186
▁ordered	-14187
▁mdm	-14188
▁dilatation	-14189
ussis	-14190
▁outflow	-14191
▁annexin	-14192
▁quantitation	-14193
▁adjunct	-14194
diagnosis	-14195
▁6%	-14196
olith	-14197
▁indis	-14198
zo	-14199
itum	-14200
▁predi	-14201
▁newer	-14202
ughter	-14203
▁srs	-14204
▁sensorimotor	-14205
anin	-14206
weeks	-14207
▁readers	-14208
imab	-14209
ritish	-14210
surgical	-14211
▁marijuana	-14212
▁computerized	-14213
etics	-14214
▁unexpectedly	-14215
▁ceft	-14216
▁standardization	-14217
esi	-14218
▁export	-14219
▁paraffin	-14220
▁aspartate	-14221
▁friends	-14222
acetic	-14223
relevant	-14224
affinity	-14225
▁dilated	-14226
thi	-14227
▁ibs	-14228
▁porph	-14229
idazole	-14230
▁redund	-14231
▁displaying	-14232
-4)	-14233
▁coffee	-14234
▁(52	-14235
night	-14236
▁demonstration	-14237
▁introduc	-14238
▁ell	-14239
▁bioactivity	-14240
▁crystalline	-14241
▁intercon	-14242
▁angina	-14243
▁herbiv	-14244
▁incidental	-14245
omorphic	-14246
▁richness	-14247
▁hyperactivity	-14248
▁engaging	-14249
▁esters	-14250
▁quadrup	-14251
▁consuming	-14252
▁ptx	-14253
▁ovid	-14254
oto	-14255
▁sarcopenia	-14256
▁inability	-14257
▁normative	-14258
what	-14259
▁caco	-14260
▁informative	-14261
▁crf	-14262
bsiella	-14263
▁solvents	-14264
central	-14265
▁acknow	-14266
▁appendic	-14267
▁msm	-14268
ivac	-14269
bsa	-14270
.2%),	-14271
▁priorities	-14272
sour	-14273
▁migratory	-14274
▁illustrates	-14275
▁alleviated	-14276
unps	-14277
▁0.03).	-14278
▁seropos	-14279
▁ram	-14280
▁mammography	-14281
▁soon	-14282
renewal	-14283
▁baumannii	-14284
▁interfaces	-14285
area	-14286
▁juice	-14287
▁operator	-14288
▁ameliorates	-14289
uran	-14290
▁198	-14291
restrial	-14292
▁anaemia	-14293
fh	-14294
.8%),	-14295
▁denv	-14296
▁tacrolimus	-14297
enzym	-14298
▁audi	-14299
▁pakistan	-14300
gsh	-14301
▁iq	-14302
acterium	-14303
▁dbs	-14304
▁independence	-14305
▁isra	-14306
▁maldi	-14307
▁(18)	-14308
cigare	-14309
▁primer	-14310
wr	-14311
▁niv	-14312
▁0.07	-14313
computed	-14314
▁telomerase	-14315
▁fibrils	-14316
▁5.9	-14317
▁uterus	-14318
▁seedlings	-14319
▁irrigation	-14320
▁metagen	-14321
▁agencies	-14322
▁duodenal	-14323
▁permit	-14324
▁lichen	-14325
orphous	-14326
fos	-14327
wall	-14328
opause	-14329
etom	-14330
cnac	-14331
▁daytime	-14332
▁client	-14333
▁spaces	-14334
▁droplet	-14335
▁treadmill	-14336
orh	-14337
▁bacteremia	-14338
▁compositions	-14339
▁leishmaniasis	-14340
▁occasion	-14341
▁tak	-14342
demographic	-14343
▁assignment	-14344
ja	-14345
iximab	-14346
▁holds	-14347
▁poisson	-14348
▁substituted	-14349
▁0.18	-14350
▁guiding	-14351
plicated	-14352
▁carlo	-14353
▁histamine	-14354
")	-14355
obes	-14356
retest	-14357
▁oligomers	-14358
▁ultrasonic	-14359
▁gallbladder	-14360
iation	-14361
▁(58	-14362
▁dpp	-14363
▁card	-14364
ailand	-14365
▁quantities	-14366
▁odont	-14367
▁rheumatic	-14368
▁pesticide	-14369
▁federal	-14370
▁blocker	-14371
▁(0.5	-14372
▁amen	-14373
▁perturbation	-14374
▁price	-14375
▁5)	-14376
▁commentary	-14377
▁å	-14378
such	-14379
▁quenching	-14380
illing	-14381
▁[2	-14382
▁(57	-14383
.3%).	-14384
▁probing	-14385
terminus	-14386
▁methane	-14387
▁hur	-14388
▁intracerebral	-14389
▁hek	-14390
▁lasting	-14391
▁(53	-14392
▁illumina	-14393
▁gradu	-14394
▁measles	-14395
▁remodelling	-14396
▁nocturnal	-14397
▁ppv	-14398
▁infrequ	-14399
trop	-14400
▁mcl	-14401
tandem	-14402
ymethyl	-14403
▁alumin	-14404
▁restrictions	-14405
▁confined	-14406
▁standardised	-14407
▁overestim	-14408
bg	-14409
▁13,	-14410
▁washing	-14411
▁klebsiella	-14412
▁warming	-14413
▁transloc	-14414
▁maze	-14415
▁piper	-14416
heastern	-14417
▁specified	-14418
elin	-14419
▁intent	-14420
▁parenteral	-14421
▁vegfr	-14422
raind	-14423
▁lignin	-14424
▁1.02	-14425
▁imatinib	-14426
▁rc	-14427
ethn	-14428
quantitative	-14429
vertebr	-14430
▁elite	-14431
▁appoint	-14432
▁bk	-14433
▁0.19	-14434
athered	-14435
▁supram	-14436
▁tunnel	-14437
▁combines	-14438
/5	-14439
ichi	-14440
▁gpcr	-14441
friend	-14442
philis	-14443
itney	-14444
▁scopus	-14445
cus	-14446
frac	-14447
conjug	-14448
▁sterile	-14449
imt	-14450
▁epist	-14451
▁hub	-14452
▁cred	-14453
otocin	-14454
amol	-14455
index	-14456
▁rights	-14457
don	-14458
▁biased	-14459
▁€	-14460
ylamide	-14461
▁yap	-14462
▁thailand	-14463
acea	-14464
▁[0.	-14465
vertebral	-14466
▁encounter	-14467
randomized	-14468
peritoneal	-14469
▁pir	-14470
▁sacc	-14471
[...]
